#include "magic_wand_model_data.h"

// We need to keep the data array aligned on some architectures.
#ifdef __has_attribute
#define HAVE_ATTRIBUTE(x) __has_attribute(x)
#else
#define HAVE_ATTRIBUTE(x) 0
#endif
#if HAVE_ATTRIBUTE(aligned) || (defined(__GNUC__) && !defined(__clang__))
#define DATA_ALIGN_ATTRIBUTE __attribute__((aligned(4)))
#else
#define DATA_ALIGN_ATTRIBUTE
#endif

const unsigned char g_magic_wand_model_data[] DATA_ALIGN_ATTRIBUTE = {
  0x1c, 0x00, 0x00, 0x00, 0x54, 0x46, 0x4c, 0x33, 0x14, 0x00, 0x20, 0x00,
  0x04, 0x00, 0x08, 0x00, 0x0c, 0x00, 0x10, 0x00, 0x14, 0x00, 0x00, 0x00,
  0x18, 0x00, 0x1c, 0x00, 0x14, 0x00, 0x00, 0x00, 0x03, 0x00, 0x00, 0x00,
  0x18, 0x00, 0x00, 0x00, 0x2c, 0x00, 0x00, 0x00, 0xd8, 0x00, 0x00, 0x00,
  0x2c, 0x00, 0x00, 0x00, 0x80, 0x00, 0x00, 0x00, 0x78, 0x00, 0x00, 0x00,
  0x05, 0x00, 0x00, 0x00, 0x28, 0x07, 0x00, 0x00, 0x44, 0x06, 0x00, 0x00,
  0xbc, 0x03, 0x00, 0x00, 0xf8, 0x02, 0x00, 0x00, 0xac, 0x01, 0x00, 0x00,
  0x01, 0x00, 0x00, 0x00, 0xd0, 0x00, 0x00, 0x00, 0x14, 0x00, 0x00, 0x00,
  0xdc, 0x32, 0x00, 0x00, 0xd8, 0x32, 0x00, 0x00, 0xd0, 0x31, 0x00, 0x00,
  0x1c, 0x31, 0x00, 0x00, 0x74, 0x30, 0x00, 0x00, 0xfc, 0x2f, 0x00, 0x00,
  0x90, 0x2f, 0x00, 0x00, 0x40, 0x13, 0x00, 0x00, 0xec, 0x11, 0x00, 0x00,
  0x10, 0x10, 0x00, 0x00, 0xb4, 0x07, 0x00, 0x00, 0xb0, 0x32, 0x00, 0x00,
  0xac, 0x32, 0x00, 0x00, 0xa8, 0x32, 0x00, 0x00, 0xa4, 0x32, 0x00, 0x00,
  0xa0, 0x32, 0x00, 0x00, 0x9c, 0x32, 0x00, 0x00, 0x98, 0x32, 0x00, 0x00,
  0x94, 0x32, 0x00, 0x00, 0x3c, 0x00, 0x00, 0x00, 0x00, 0x00, 0x00, 0x00,
  0x01, 0x00, 0x00, 0x00, 0x0c, 0x00, 0x00, 0x00, 0x08, 0x00, 0x0c, 0x00,
  0x04, 0x00, 0x08, 0x00, 0x08, 0x00, 0x00, 0x00, 0x08, 0x00, 0x00, 0x00,
  0x13, 0x00, 0x00, 0x00, 0x13, 0x00, 0x00, 0x00, 0x6d, 0x69, 0x6e, 0x5f,
  0x72, 0x75, 0x6e, 0x74, 0x69, 0x6d, 0x65, 0x5f, 0x76, 0x65, 0x72, 0x73,
  0x69, 0x6f, 0x6e, 0x00, 0xb6, 0xce, 0xff, 0xff, 0x04, 0x00, 0x00, 0x00,
  0x10, 0x00, 0x00, 0x00, 0x31, 0x2e, 0x35, 0x2e, 0x30, 0x00, 0x00, 0x00,
  0x00, 0x00, 0x00, 0x00, 0x00, 0x00, 0x00, 0x00, 0x0f, 0x00, 0x00, 0x00,
  0x4d, 0x4c, 0x49, 0x52, 0x20, 0x43, 0x6f, 0x6e, 0x76, 0x65, 0x72, 0x74,
  0x65, 0x64, 0x2e, 0x00, 0x00, 0x00, 0x0e, 0x00, 0x18, 0x00, 0x04, 0x00,
  0x08, 0x00, 0x0c, 0x00, 0x10, 0x00, 0x14, 0x00, 0x0e, 0x00, 0x00, 0x00,
  0x14, 0x00, 0x00, 0x00, 0x5c, 0x00, 0x00, 0x00, 0x60, 0x00, 0x00, 0x00,
  0x64, 0x00, 0x00, 0x00, 0x84, 0x00, 0x00, 0x00, 0x12, 0x00, 0x00, 0x00,
  0x9c, 0x31, 0x00, 0x00, 0x2c, 0x31, 0x00, 0x00, 0x88, 0x30, 0x00, 0x00,
  0xe0, 0x2f, 0x00, 0x00, 0x38, 0x2f, 0x00, 0x00, 0xd4, 0x2e, 0x00, 0x00,
  0x6c, 0x2e, 0x00, 0x00, 0x18, 0x12, 0x00, 0x00, 0xbc, 0x10, 0x00, 0x00,
  0xe0, 0x0e, 0x00, 0x00, 0x0c, 0x06, 0x00, 0x00, 0x28, 0x05, 0x00, 0x00,
  0xe8, 0x03, 0x00, 0x00, 0x3c, 0x03, 0x00, 0x00, 0x98, 0x02, 0x00, 0x00,
  0xd4, 0x01, 0x00, 0x00, 0x10, 0x01, 0x00, 0x00, 0x84, 0x00, 0x00, 0x00,
  0x01, 0x00, 0x00, 0x00, 0x00, 0x00, 0x00, 0x00, 0x01, 0x00, 0x00, 0x00,
  0x11, 0x00, 0x00, 0x00, 0x08, 0x00, 0x00, 0x00, 0x74, 0x05, 0x00, 0x00,
  0x94, 0x04, 0x00, 0x00, 0x78, 0x03, 0x00, 0x00, 0xbc, 0x02, 0x00, 0x00,
  0x30, 0x02, 0x00, 0x00, 0x50, 0x01, 0x00, 0x00, 0xa8, 0x00, 0x00, 0x00,
  0x10, 0x00, 0x00, 0x00, 0x04, 0x00, 0x00, 0x00, 0x6d, 0x61, 0x69, 0x6e,
  0x00, 0x00, 0x00, 0x00, 0x7a, 0xff, 0xff, 0xff, 0x00, 0x00, 0x00, 0x09,
  0x04, 0x00, 0x00, 0x00, 0x1c, 0x00, 0x00, 0x00, 0x10, 0x00, 0x00, 0x00,
  0x04, 0x00, 0x00, 0x00, 0xb2, 0xcf, 0xff, 0xff, 0x00, 0x00, 0x80, 0x3f,
  0x01, 0x00, 0x00, 0x00, 0x11, 0x00, 0x00, 0x00, 0x01, 0x00, 0x00, 0x00,
  0x10, 0x00, 0x00, 0x00, 0xa0, 0xfa, 0xff, 0xff, 0x19, 0x00, 0x00, 0x00,
  0x00, 0x00, 0x00, 0x19, 0x01, 0x00, 0x00, 0x00, 0x40, 0xcf, 0xff, 0xff,
  0x14, 0x00, 0x00, 0x00, 0x12, 0x00, 0x00, 0x00, 0x18, 0x00, 0x00, 0x00,
  0x30, 0x00, 0x00, 0x00, 0x20, 0x00, 0x00, 0x00, 0x02, 0x00, 0x00, 0x00,
  0x01, 0x00, 0x00, 0x00, 0x04, 0x00, 0x00, 0x00, 0x08, 0x00, 0x00, 0x00,
  0x49, 0x64, 0x65, 0x6e, 0x74, 0x69, 0x74, 0x79, 0x00, 0x00, 0x00, 0x00,
  0x02, 0x00, 0x00, 0x00, 0xff, 0xff, 0xff, 0xff, 0x04, 0x00, 0x00, 0x00,
  0x24, 0xd0, 0xff, 0xff, 0x00, 0x00, 0x0e, 0x00, 0x18, 0x00, 0x08, 0x00,
  0x0c, 0x00, 0x10, 0x00, 0x07, 0x00, 0x14, 0x00, 0x0e, 0x00, 0x00, 0x00,
  0x00, 0x00, 0x00, 0x08, 0x03, 0x00, 0x00, 0x00, 0x18, 0x00, 0x00, 0x00,
  0x0c, 0x00, 0x00, 0x00, 0x04, 0x00, 0x00, 0x00, 0x40, 0xcf, 0xff, 0xff,
  0x01, 0x00, 0x00, 0x00, 0x10, 0x00, 0x00, 0x00, 0x03, 0x00, 0x00, 0x00,
  0x0f, 0x00, 0x00, 0x00, 0x07, 0x00, 0x00, 0x00, 0x04, 0x00, 0x00, 0x00,
  0xc8, 0xcf, 0xff, 0xff, 0x14, 0x00, 0x00, 0x00, 0x11, 0x00, 0x00, 0x00,
  0x18, 0x00, 0x00, 0x00, 0x5c, 0x00, 0x00, 0x00, 0x4c, 0x00, 0x00, 0x00,
  0x02, 0x00, 0x00, 0x00, 0x01, 0x00, 0x00, 0x00, 0x04, 0x00, 0x00, 0x00,
  0x34, 0x00, 0x00, 0x00, 0x73, 0x65, 0x71, 0x75, 0x65, 0x6e, 0x74, 0x69,
  0x61, 0x6c, 0x2f, 0x64, 0x65, 0x6e, 0x73, 0x65, 0x5f, 0x31, 0x2f, 0x4d,
  0x61, 0x74, 0x4d, 0x75, 0x6c, 0x3b, 0x73, 0x65, 0x71, 0x75, 0x65, 0x6e,
  0x74, 0x69, 0x61, 0x6c, 0x2f, 0x64, 0x65, 0x6e, 0x73, 0x65, 0x5f, 0x31,
  0x2f, 0x42, 0x69, 0x61, 0x73, 0x41, 0x64, 0x64, 0x00, 0x00, 0x00, 0x00,
  0x02, 0x00, 0x00, 0x00, 0xff, 0xff, 0xff, 0xff, 0x04, 0x00, 0x00, 0x00,
  0xc8, 0xcf, 0xff, 0xff, 0xda, 0xfc, 0xff, 0xff, 0x00, 0x00, 0x00, 0x08,
  0x03, 0x00, 0x00, 0x00, 0x24, 0x00, 0x00, 0x00, 0x18, 0x00, 0x00, 0x00,
  0x0c, 0x00, 0x00, 0x00, 0x00, 0x00, 0x06, 0x00, 0x08, 0x00, 0x07, 0x00,
  0x06, 0x00, 0x00, 0x00, 0x00, 0x00, 0x00, 0x01, 0x01, 0x00, 0x00, 0x00,
  0x0f, 0x00, 0x00, 0x00, 0x03, 0x00, 0x00, 0x00, 0x0e, 0x00, 0x00, 0x00,
  0x06, 0x00, 0x00, 0x00, 0x03, 0x00, 0x00, 0x00, 0xe8, 0xfb, 0xff, 0xff,
  0x09, 0x00, 0x00, 0x00, 0x00, 0x00, 0x00, 0x09, 0x01, 0x00, 0x00, 0x00,
  0x88, 0xd0, 0xff, 0xff, 0x14, 0x00, 0x00, 0x00, 0x10, 0x00, 0x00, 0x00,
  0x18, 0x00, 0x00, 0x00, 0x6c, 0x00, 0x00, 0x00, 0x5c, 0x00, 0x00, 0x00,
  0x02, 0x00, 0x00, 0x00, 0x01, 0x00, 0x00, 0x00, 0x10, 0x00, 0x00, 0x00,
  0x46, 0x00, 0x00, 0x00, 0x73, 0x65, 0x71, 0x75, 0x65, 0x6e, 0x74, 0x69,
  0x61, 0x6c, 0x2f, 0x64, 0x65, 0x6e, 0x73, 0x65, 0x2f, 0x4d, 0x61, 0x74,
  0x4d, 0x75, 0x6c, 0x3b, 0x73, 0x65, 0x71, 0x75, 0x65, 0x6e, 0x74, 0x69,
  0x61, 0x6c, 0x2f, 0x64, 0x65, 0x6e, 0x73, 0x65, 0x2f, 0x52, 0x65, 0x6c,
  0x75, 0x3b, 0x73, 0x65, 0x71, 0x75, 0x65, 0x6e, 0x74, 0x69, 0x61, 0x6c,
  0x2f, 0x64, 0x65, 0x6e, 0x73, 0x65, 0x2f, 0x42, 0x69, 0x61, 0x73, 0x41,
  0x64, 0x64, 0x00, 0x00, 0x02, 0x00, 0x00, 0x00, 0xff, 0xff, 0xff, 0xff,
  0x10, 0x00, 0x00, 0x00, 0xa8, 0xd1, 0xff, 0xff, 0x00, 0x00, 0x0a, 0x00,
  0x10, 0x00, 0x04, 0x00, 0x08, 0x00, 0x0c, 0x00, 0x0a, 0x00, 0x00, 0x00,
  0x02, 0x00, 0x00, 0x00, 0x10, 0x00, 0x00, 0x00, 0x04, 0x00, 0x00, 0x00,
  0x01, 0x00, 0x00, 0x00, 0x0e, 0x00, 0x00, 0x00, 0x02, 0x00, 0x00, 0x00,
  0x0d, 0x00, 0x00, 0x00, 0x05, 0x00, 0x00, 0x00, 0xa8, 0xfc, 0xff, 0xff,
  0x16, 0x00, 0x00, 0x00, 0x00, 0x00, 0x00, 0x16, 0x01, 0x00, 0x00, 0x00,
  0x48, 0xd1, 0xff, 0xff, 0x14, 0x00, 0x00, 0x00, 0x0f, 0x00, 0x00, 0x00,
  0x18, 0x00, 0x00, 0x00, 0x40, 0x00, 0x00, 0x00, 0x30, 0x00, 0x00, 0x00,
  0x02, 0x00, 0x00, 0x00, 0x01, 0x00, 0x00, 0x00, 0x70, 0x00, 0x00, 0x00,
  0x1a, 0x00, 0x00, 0x00, 0x73, 0x65, 0x71, 0x75, 0x65, 0x6e, 0x74, 0x69,
  0x61, 0x6c, 0x2f, 0x66, 0x6c, 0x61, 0x74, 0x74, 0x65, 0x6e, 0x2f, 0x52,
  0x65, 0x73, 0x68, 0x61, 0x70, 0x65, 0x00, 0x00, 0x02, 0x00, 0x00, 0x00,
  0xff, 0xff, 0xff, 0xff, 0x70, 0x00, 0x00, 0x00, 0x2c, 0xd1, 0xff, 0xff,
  0x3e, 0xfe, 0xff, 0xff, 0x00, 0x00, 0x00, 0x05, 0x01, 0x00, 0x00, 0x00,
  0x38, 0x00, 0x00, 0x00, 0x2c, 0x00, 0x00, 0x00, 0x14, 0x00, 0x00, 0x00,
  0x00, 0x00, 0x0e, 0x00, 0x14, 0x00, 0x00, 0x00, 0x10, 0x00, 0x0c, 0x00,
  0x08, 0x00, 0x04, 0x00, 0x0e, 0x00, 0x00, 0x00, 0x03, 0x00, 0x00, 0x00,
  0x01, 0x00, 0x00, 0x00, 0x03, 0x00, 0x00, 0x00, 0x01, 0x00, 0x00, 0x00,
  0x01, 0x00, 0x00, 0x00, 0x0d, 0x00, 0x00, 0x00, 0x01, 0x00, 0x00, 0x00,
  0x0c, 0x00, 0x00, 0x00, 0xe8, 0xd1, 0xff, 0xff, 0x14, 0x00, 0x00, 0x00,
  0x0e, 0x00, 0x00, 0x00, 0x20, 0x00, 0x00, 0x00, 0x58, 0x00, 0x00, 0x00,
  0x40, 0x00, 0x00, 0x00, 0x04, 0x00, 0x00, 0x00, 0x01, 0x00, 0x00, 0x00,
  0x07, 0x00, 0x00, 0x00, 0x01, 0x00, 0x00, 0x00, 0x10, 0x00, 0x00, 0x00,
  0x22, 0x00, 0x00, 0x00, 0x73, 0x65, 0x71, 0x75, 0x65, 0x6e, 0x74, 0x69,
  0x61, 0x6c, 0x2f, 0x6d, 0x61, 0x78, 0x5f, 0x70, 0x6f, 0x6f, 0x6c, 0x69,
  0x6e, 0x67, 0x32, 0x64, 0x5f, 0x31, 0x2f, 0x4d, 0x61, 0x78, 0x50, 0x6f,
  0x6f, 0x6c, 0x00, 0x00, 0x04, 0x00, 0x00, 0x00, 0xff, 0xff, 0xff, 0xff,
  0x07, 0x00, 0x00, 0x00, 0x01, 0x00, 0x00, 0x00, 0x10, 0x00, 0x00, 0x00,
  0xe4, 0xd1, 0xff, 0xff, 0x1a, 0xfe, 0xff, 0xff, 0x00, 0x00, 0x00, 0x01,
  0x24, 0x00, 0x00, 0x00, 0x18, 0x00, 0x00, 0x00, 0x04, 0x00, 0x00, 0x00,
  0x0c, 0xfe, 0xff, 0xff, 0x01, 0x00, 0x00, 0x00, 0x01, 0x00, 0x00, 0x00,
  0x00, 0x00, 0x00, 0x01, 0x01, 0x00, 0x00, 0x00, 0x0c, 0x00, 0x00, 0x00,
  0x03, 0x00, 0x00, 0x00, 0x0b, 0x00, 0x00, 0x00, 0x09, 0x00, 0x00, 0x00,
  0x02, 0x00, 0x00, 0x00, 0x90, 0xd2, 0xff, 0xff, 0x14, 0x00, 0x00, 0x00,
  0x0d, 0x00, 0x00, 0x00, 0x20, 0x00, 0x00, 0x00, 0xb8, 0x00, 0x00, 0x00,
  0xa0, 0x00, 0x00, 0x00, 0x04, 0x00, 0x00, 0x00, 0x01, 0x00, 0x00, 0x00,
  0x15, 0x00, 0x00, 0x00, 0x01, 0x00, 0x00, 0x00, 0x10, 0x00, 0x00, 0x00,
  0x83, 0x00, 0x00, 0x00, 0x73, 0x65, 0x71, 0x75, 0x65, 0x6e, 0x74, 0x69,
  0x61, 0x6c, 0x2f, 0x63, 0x6f, 0x6e, 0x76, 0x32, 0x64, 0x5f, 0x31, 0x2f,
  0x52, 0x65, 0x6c, 0x75, 0x3b, 0x73, 0x65, 0x71, 0x75, 0x65, 0x6e, 0x74,
  0x69, 0x61, 0x6c, 0x2f, 0x63, 0x6f, 0x6e, 0x76, 0x32, 0x64, 0x5f, 0x31,
  0x2f, 0x42, 0x69, 0x61, 0x73, 0x41, 0x64, 0x64, 0x3b, 0x73, 0x65, 0x71,
  0x75, 0x65, 0x6e, 0x74, 0x69, 0x61, 0x6c, 0x2f, 0x63, 0x6f, 0x6e, 0x76,
  0x32, 0x64, 0x5f, 0x31, 0x2f, 0x43, 0x6f, 0x6e, 0x76, 0x32, 0x44, 0x3b,
  0x73, 0x65, 0x71, 0x75, 0x65, 0x6e, 0x74, 0x69, 0x61, 0x6c, 0x2f, 0x63,
  0x6f, 0x6e, 0x76, 0x32, 0x64, 0x5f, 0x31, 0x2f, 0x42, 0x69, 0x61, 0x73,
  0x41, 0x64, 0x64, 0x2f, 0x52, 0x65, 0x61, 0x64, 0x56, 0x61, 0x72, 0x69,
  0x61, 0x62, 0x6c, 0x65, 0x4f, 0x70, 0x2f, 0x72, 0x65, 0x73, 0x6f, 0x75,
  0x72, 0x63, 0x65, 0x00, 0x04, 0x00, 0x00, 0x00, 0xff, 0xff, 0xff, 0xff,
  0x15, 0x00, 0x00, 0x00, 0x01, 0x00, 0x00, 0x00, 0x10, 0x00, 0x00, 0x00,
  0xfc, 0xd3, 0xff, 0xff, 0x00, 0x00, 0x0e, 0x00, 0x1a, 0x00, 0x08, 0x00,
  0x0c, 0x00, 0x10, 0x00, 0x07, 0x00, 0x14, 0x00, 0x0e, 0x00, 0x00, 0x00,
  0x00, 0x00, 0x00, 0x05, 0x01, 0x00, 0x00, 0x00, 0x3c, 0x00, 0x00, 0x00,
  0x30, 0x00, 0x00, 0x00, 0x14, 0x00, 0x00, 0x00, 0x00, 0x00, 0x0e, 0x00,
  0x18, 0x00, 0x17, 0x00, 0x10, 0x00, 0x0c, 0x00, 0x08, 0x00, 0x04, 0x00,
  0x0e, 0x00, 0x00, 0x00, 0x03, 0x00, 0x00, 0x00, 0x03, 0x00, 0x00, 0x00,
  0x03, 0x00, 0x00, 0x00, 0x03, 0x00, 0x00, 0x00, 0x00, 0x00, 0x00, 0x01,
  0x01, 0x00, 0x00, 0x00, 0x0b, 0x00, 0x00, 0x00, 0x01, 0x00, 0x00, 0x00,
  0x0a, 0x00, 0x00, 0x00, 0x2c, 0xff, 0xff, 0xff, 0x11, 0x00, 0x00, 0x00,
  0x00, 0x00, 0x00, 0x11, 0x01, 0x00, 0x00, 0x00, 0xcc, 0xd3, 0xff, 0xff,
  0x14, 0x00, 0x00, 0x00, 0x0c, 0x00, 0x00, 0x00, 0x20, 0x00, 0x00, 0x00,
  0x58, 0x00, 0x00, 0x00, 0x40, 0x00, 0x00, 0x00, 0x04, 0x00, 0x00, 0x00,
  0x01, 0x00, 0x00, 0x00, 0x15, 0x00, 0x00, 0x00, 0x01, 0x00, 0x00, 0x00,
  0x08, 0x00, 0x00, 0x00, 0x20, 0x00, 0x00, 0x00, 0x73, 0x65, 0x71, 0x75,
  0x65, 0x6e, 0x74, 0x69, 0x61, 0x6c, 0x2f, 0x6d, 0x61, 0x78, 0x5f, 0x70,
  0x6f, 0x6f, 0x6c, 0x69, 0x6e, 0x67, 0x32, 0x64, 0x2f, 0x4d, 0x61, 0x78,
  0x50, 0x6f, 0x6f, 0x6c, 0x00, 0x00, 0x00, 0x00, 0x04, 0x00, 0x00, 0x00,
  0xff, 0xff, 0xff, 0xff, 0x15, 0x00, 0x00, 0x00, 0x01, 0x00, 0x00, 0x00,
  0x08, 0x00, 0x00, 0x00, 0xd8, 0xd4, 0xff, 0xff, 0x00, 0x00, 0x0e, 0x00,
  0x14, 0x00, 0x00, 0x00, 0x08, 0x00, 0x0c, 0x00, 0x07, 0x00, 0x10, 0x00,
  0x0e, 0x00, 0x00, 0x00, 0x00, 0x00, 0x00, 0x01, 0x30, 0x00, 0x00, 0x00,
  0x24, 0x00, 0x00, 0x00, 0x10, 0x00, 0x00, 0x00, 0x0c, 0x00, 0x10, 0x00,
  0x00, 0x00, 0x04, 0x00, 0x08, 0x00, 0x0f, 0x00, 0x0c, 0x00, 0x00, 0x00,
  0x01, 0x00, 0x00, 0x00, 0x01, 0x00, 0x00, 0x00, 0x00, 0x00, 0x00, 0x01,
  0x01, 0x00, 0x00, 0x00, 0x0a, 0x00, 0x00, 0x00, 0x03, 0x00, 0x00, 0x00,
  0x00, 0x00, 0x00, 0x00, 0x08, 0x00, 0x00, 0x00, 0x01, 0x00, 0x00, 0x00,
  0x0c, 0x00, 0x10, 0x00, 0x0b, 0x00, 0x00, 0x00, 0x0c, 0x00, 0x04, 0x00,
  0x0c, 0x00, 0x00, 0x00, 0x03, 0x00, 0x00, 0x00, 0x00, 0x00, 0x00, 0x03,
  0x01, 0x00, 0x00, 0x00, 0xac, 0xd4, 0xff, 0xff, 0x14, 0x00, 0x00, 0x00,
  0x0b, 0x00, 0x00, 0x00, 0x20, 0x00, 0x00, 0x00, 0xb0, 0x00, 0x00, 0x00,
  0x98, 0x00, 0x00, 0x00, 0x04, 0x00, 0x00, 0x00, 0x01, 0x00, 0x00, 0x00,
  0x40, 0x00, 0x00, 0x00, 0x03, 0x00, 0x00, 0x00, 0x08, 0x00, 0x00, 0x00,
  0x7b, 0x00, 0x00, 0x00, 0x73, 0x65, 0x71, 0x75, 0x65, 0x6e, 0x74, 0x69,
  0x61, 0x6c, 0x2f, 0x63, 0x6f, 0x6e, 0x76, 0x32, 0x64, 0x2f, 0x52, 0x65,
  0x6c, 0x75, 0x3b, 0x73, 0x65, 0x71, 0x75, 0x65, 0x6e, 0x74, 0x69, 0x61,
  0x6c, 0x2f, 0x63, 0x6f, 0x6e, 0x76, 0x32, 0x64, 0x2f, 0x42, 0x69, 0x61,
  0x73, 0x41, 0x64, 0x64, 0x3b, 0x73, 0x65, 0x71, 0x75, 0x65, 0x6e, 0x74,
  0x69, 0x61, 0x6c, 0x2f, 0x63, 0x6f, 0x6e, 0x76, 0x32, 0x64, 0x2f, 0x43,
  0x6f, 0x6e, 0x76, 0x32, 0x44, 0x3b, 0x73, 0x65, 0x71, 0x75, 0x65, 0x6e,
  0x74, 0x69, 0x61, 0x6c, 0x2f, 0x63, 0x6f, 0x6e, 0x76, 0x32, 0x64, 0x2f,
  0x42, 0x69, 0x61, 0x73, 0x41, 0x64, 0x64, 0x2f, 0x52, 0x65, 0x61, 0x64,
  0x56, 0x61, 0x72, 0x69, 0x61, 0x62, 0x6c, 0x65, 0x4f, 0x70, 0x2f, 0x72,
  0x65, 0x73, 0x6f, 0x75, 0x72, 0x63, 0x65, 0x00, 0x04, 0x00, 0x00, 0x00,
  0xff, 0xff, 0xff, 0xff, 0x40, 0x00, 0x00, 0x00, 0x03, 0x00, 0x00, 0x00,
  0x08, 0x00, 0x00, 0x00, 0x00, 0xd5, 0xff, 0xff, 0x0a, 0xd6, 0xff, 0xff,
  0x04, 0x00, 0x00, 0x00, 0x00, 0x08, 0x00, 0x00, 0x7a, 0x6d, 0x29, 0x3e,
  0xf7, 0x15, 0xc0, 0xbd, 0x12, 0xe2, 0xac, 0x3e, 0x35, 0x18, 0xf2, 0x3e,
  0x2e, 0x70, 0x52, 0x3e, 0x71, 0x99, 0x7c, 0x3d, 0xad, 0x79, 0x9a, 0xbc,
  0x44, 0x70, 0x86, 0xbd, 0xbc, 0xc5, 0x82, 0x3d, 0x1a, 0x1b, 0xb3, 0xbd,
  0xb0, 0x59, 0xe5, 0x3c, 0xa0, 0x19, 0x81, 0x3d, 0x1d, 0x1f, 0x31, 0x3e,
  0xfb, 0x81, 0x00, 0x3c, 0xa2, 0x1e, 0xbb, 0x3d, 0x37, 0x18, 0x43, 0xbd,
  0xee, 0x39, 0x6c, 0xbe, 0x7e, 0xb7, 0x98, 0xbd, 0x45, 0x68, 0xb1, 0xbc,
  0xba, 0x9a, 0x45, 0xbe, 0x4f, 0x72, 0xfa, 0xbd, 0x76, 0xa3, 0xa6, 0xbd,
  0xb8, 0x09, 0x2e, 0xbc, 0x70, 0xe8, 0x8c, 0x3b, 0x16, 0x16, 0x61, 0xbe,
  0xbb, 0xa6, 0x4a, 0xbd, 0x8c, 0x2d, 0x5e, 0x3d, 0x39, 0x87, 0x22, 0xbe,
  0xe6, 0xe2, 0xa7, 0xbe, 0xb8, 0x04, 0xc2, 0xbd, 0xc8, 0x18, 0x42, 0xbd,
  0xb6, 0x67, 0x80, 0x3d, 0x14, 0x76, 0xfe, 0xbe, 0x1f, 0xe0, 0xf2, 0xbe,
  0x14, 0x0c, 0x5f, 0xbe, 0x56, 0xfb, 0x67, 0xbe, 0x7c, 0x9a, 0xa9, 0xbe,
  0x06, 0x1f, 0x9c, 0xbd, 0xed, 0x0c, 0xef, 0xbd, 0x05, 0xc6, 0xdc, 0x3d,
  0x4d, 0xb1, 0xe6, 0xbe, 0x58, 0x19, 0x02, 0xbf, 0x5f, 0x7a, 0xee, 0x3d,
  0x12, 0x66, 0xaf, 0xbc, 0x71, 0x40, 0xcf, 0xbb, 0xcc, 0x4d, 0x75, 0x3d,
  0x5c, 0x57, 0xed, 0x3b, 0xff, 0xf7, 0x2a, 0xbe, 0xda, 0x56, 0x47, 0x3d,
  0xeb, 0xac, 0xc3, 0xbe, 0x68, 0xae, 0xa3, 0x3e, 0x21, 0xf9, 0x1f, 0x3c,
  0x17, 0x8a, 0x2a, 0x3d, 0x69, 0x23, 0xa1, 0x3e, 0x3d, 0xfd, 0xbc, 0x3d,
  0xd1, 0x0f, 0xfb, 0xbd, 0x3b, 0x99, 0x7a, 0x3d, 0x85, 0xef, 0xba, 0xbe,
  0x11, 0x2d, 0x35, 0x3e, 0x46, 0x76, 0xc8, 0xbc, 0xee, 0xea, 0x19, 0xbd,
  0x67, 0xa6, 0xd6, 0xbc, 0x09, 0xd3, 0x03, 0x3b, 0x1e, 0x11, 0x68, 0x3c,
  0x67, 0xa0, 0x9b, 0xbd, 0xbf, 0xae, 0x49, 0xbc, 0x59, 0xa9, 0x19, 0xbd,
  0x63, 0xa2, 0xa8, 0xbb, 0xb1, 0xb9, 0xb5, 0xbe, 0x3a, 0x5b, 0xea, 0xbd,
  0x41, 0x27, 0x88, 0x3e, 0x23, 0xae, 0xa1, 0x3e, 0x5d, 0xe7, 0x93, 0xbe,
  0x08, 0x43, 0x24, 0x3d, 0x04, 0xfb, 0x12, 0xbf, 0x84, 0xb8, 0x3b, 0xbe,
  0x35, 0x88, 0x24, 0xbf, 0x63, 0xf1, 0x3c, 0xbe, 0x7f, 0x81, 0x8b, 0xbe,
  0x8f, 0x32, 0xcc, 0x3c, 0x50, 0x88, 0xef, 0xbd, 0x92, 0xcc, 0x14, 0xbc,
  0x8c, 0xeb, 0xc1, 0x3c, 0x4d, 0xb9, 0x92, 0xbe, 0x42, 0xac, 0x7b, 0xbf,
  0x3a, 0x2c, 0x82, 0xbe, 0xc4, 0xcd, 0x89, 0xbe, 0x2b, 0xd9, 0x66, 0xba,
  0x55, 0xaa, 0x90, 0x3e, 0xcb, 0x51, 0x91, 0x3a, 0xae, 0xba, 0x73, 0x3e,
  0x34, 0xac, 0x4f, 0x3e, 0x65, 0x00, 0x2f, 0xbd, 0xf8, 0x9d, 0xf7, 0xbd,
  0x29, 0x5c, 0x85, 0xbe, 0x36, 0x69, 0x21, 0x3e, 0xd4, 0x1c, 0xb6, 0x3c,
  0xb1, 0xbe, 0xe6, 0x3d, 0xae, 0x29, 0x4e, 0x3d, 0x37, 0x31, 0x7e, 0x3e,
  0x09, 0x10, 0x80, 0x3c, 0xdd, 0x18, 0xe0, 0x3c, 0xd2, 0xa1, 0x9c, 0xbe,
  0xf7, 0x89, 0xcd, 0xbd, 0x71, 0x90, 0x41, 0x3e, 0x61, 0x02, 0xbc, 0xbc,
  0x38, 0x31, 0x8d, 0xbd, 0xfa, 0xe5, 0x9a, 0xbd, 0xdc, 0x7e, 0x66, 0xbd,
  0xef, 0xbd, 0x0b, 0xbd, 0x1f, 0xf2, 0x5c, 0xbf, 0xcd, 0x24, 0xc2, 0xbd,
  0x24, 0x7c, 0x21, 0xbd, 0x9b, 0x21, 0x93, 0x3e, 0x4a, 0x2e, 0x02, 0x3d,
  0xb7, 0x46, 0x82, 0x3c, 0x24, 0x05, 0x93, 0xbd, 0xf2, 0x5e, 0x8b, 0xbd,
  0xe0, 0x79, 0x44, 0xbf, 0x7f, 0x17, 0x1a, 0xbe, 0xb0, 0xe5, 0x11, 0xbd,
  0xee, 0xcc, 0x0a, 0xbe, 0x21, 0xe8, 0xb0, 0xbd, 0xed, 0x20, 0x02, 0xbd,
  0xdb, 0x05, 0x08, 0x3e, 0x08, 0x1e, 0x9c, 0xbd, 0x15, 0x6a, 0xd2, 0xbe,
  0x82, 0xb5, 0xe3, 0xbd, 0x34, 0x78, 0xd9, 0xbd, 0xc1, 0xfc, 0x18, 0xbd,
  0x2c, 0x8a, 0xdd, 0xbd, 0x79, 0xdb, 0x1f, 0xbd, 0xde, 0xc6, 0x83, 0x3d,
  0x82, 0xd3, 0x9a, 0xbd, 0x1b, 0x0b, 0x44, 0xbd, 0x1e, 0x8a, 0x14, 0xbc,
  0x09, 0xa9, 0x8a, 0xbd, 0x43, 0xd7, 0x28, 0xbd, 0xfe, 0xa9, 0xf3, 0xbd,
  0xe8, 0x54, 0x97, 0xbc, 0x2e, 0x6f, 0x96, 0x3b, 0x3e, 0x08, 0x64, 0xbd,
  0x4d, 0x3c, 0x27, 0xbd, 0xa3, 0xef, 0x96, 0xbd, 0xd0, 0x59, 0xfb, 0xbc,
  0x11, 0x75, 0x47, 0xbb, 0xf0, 0x6e, 0xbd, 0x3c, 0x5f, 0x9b, 0x2f, 0xbe,
  0x6b, 0x75, 0x08, 0xbd, 0xa4, 0x68, 0x3e, 0xbd, 0x9b, 0x8c, 0x15, 0xbc,
  0x03, 0x4f, 0x9c, 0xbc, 0xf0, 0xdf, 0xb7, 0x3d, 0x2d, 0x5d, 0x45, 0xbb,
  0x9b, 0x9c, 0x33, 0x3e, 0x8f, 0x43, 0x41, 0xbe, 0x45, 0xb3, 0x3d, 0x3d,
  0xcf, 0x53, 0xf2, 0xbd, 0x95, 0x33, 0x09, 0xbe, 0x0e, 0xaa, 0xad, 0xbb,
  0x30, 0xcc, 0x40, 0xbe, 0xf8, 0x02, 0x86, 0xbc, 0x62, 0xd4, 0xa4, 0xbe,
  0x49, 0xbe, 0x5d, 0xbe, 0x6c, 0xf3, 0xd3, 0xbe, 0xde, 0x1b, 0x8c, 0x3d,
  0x63, 0xa2, 0x05, 0xbc, 0x61, 0xd9, 0xf3, 0xbc, 0x1c, 0x3a, 0x78, 0xbe,
  0xcc, 0xde, 0xc2, 0x3d, 0x1d, 0x5e, 0x07, 0xbe, 0x56, 0x41, 0x43, 0xbc,
  0xdf, 0x1b, 0xa1, 0x3d, 0x3c, 0xa9, 0xbb, 0x3d, 0x59, 0xa6, 0xf0, 0x3d,
  0xba, 0x27, 0x8f, 0x3e, 0x7b, 0xfa, 0xea, 0xbc, 0x49, 0x85, 0x8b, 0xbd,
  0x34, 0x69, 0x9c, 0xbe, 0xec, 0x6f, 0xf0, 0x3d, 0x5c, 0x21, 0x05, 0xbe,
  0x5b, 0x46, 0x8b, 0xbe, 0xb5, 0xe1, 0x0b, 0xbe, 0xc1, 0x8e, 0xe3, 0xbd,
  0xce, 0x5e, 0x70, 0xbe, 0x70, 0x59, 0xaa, 0xbc, 0x4b, 0x79, 0x06, 0xbe,
  0xac, 0xb0, 0x9e, 0xbe, 0xc4, 0x51, 0x85, 0xbd, 0xf3, 0xd6, 0x3c, 0xbe,
  0xa8, 0x4a, 0x50, 0xbd, 0x93, 0xe9, 0xe3, 0x3c, 0x7d, 0x1c, 0x42, 0xbe,
  0xdb, 0x4c, 0xa7, 0xbd, 0xcc, 0xb5, 0xfa, 0xbc, 0xf8, 0xbd, 0xd8, 0xbd,
  0x01, 0xa1, 0xa4, 0xbd, 0x1a, 0x31, 0x24, 0xbd, 0x17, 0x61, 0x74, 0xbd,
  0x60, 0x67, 0xed, 0xbd, 0x3d, 0x9d, 0x15, 0xbe, 0x1f, 0xc4, 0xe1, 0xbd,
  0x1c, 0xc9, 0x91, 0xbd, 0x7c, 0x20, 0x3c, 0xbe, 0xc1, 0x6a, 0xc5, 0xbd,
  0xed, 0x5d, 0xaa, 0xbd, 0x0b, 0x4e, 0xf8, 0xbd, 0x26, 0x21, 0x12, 0xbe,
  0x7f, 0x89, 0x07, 0xba, 0x94, 0xe9, 0xa8, 0xbd, 0x83, 0x14, 0xbe, 0x3d,
  0x05, 0x3e, 0x01, 0xbe, 0x1a, 0xdf, 0x77, 0x3e, 0x73, 0x6a, 0x2a, 0xbc,
  0x85, 0x0f, 0x0d, 0xbd, 0x3b, 0x2e, 0x62, 0xbd, 0xe3, 0x7c, 0x13, 0x3f,
  0x9f, 0x4a, 0x2f, 0x3e, 0x5d, 0x7e, 0x90, 0x3c, 0xc7, 0x1d, 0x1c, 0xbe,
  0x99, 0x65, 0x35, 0x3d, 0xc1, 0xef, 0x1a, 0xbd, 0xa1, 0xb8, 0xd8, 0xbb,
  0x3d, 0xf9, 0x6b, 0x3e, 0x99, 0xe0, 0x11, 0x3f, 0x97, 0x8e, 0x6f, 0xbd,
  0x0c, 0xd7, 0xb6, 0x3c, 0x2d, 0xe1, 0xe4, 0xbd, 0x4c, 0x13, 0x4b, 0x3e,
  0x6d, 0x38, 0xc8, 0xbd, 0xaa, 0x81, 0xf7, 0x3b, 0x34, 0xc2, 0x8c, 0xbd,
  0xa7, 0xf9, 0x30, 0xbe, 0x92, 0x35, 0x99, 0xbd, 0xd9, 0x04, 0x29, 0xbe,
  0x11, 0xe7, 0x0b, 0xbe, 0x0b, 0x0c, 0xfe, 0xbd, 0x20, 0x41, 0x8f, 0xbd,
  0x82, 0x12, 0x36, 0xbd, 0x54, 0xfb, 0x59, 0xbd, 0x5a, 0xe0, 0x5c, 0xbe,
  0x26, 0x29, 0x04, 0x3a, 0x65, 0xe8, 0x58, 0xbe, 0xb1, 0x9b, 0xa7, 0xbd,
  0x08, 0x99, 0x98, 0xbd, 0x6a, 0xd9, 0xee, 0xbc, 0x29, 0xd5, 0x36, 0xbc,
  0x26, 0x13, 0xe0, 0x3c, 0x74, 0x2a, 0x80, 0xbe, 0xf1, 0xb6, 0xeb, 0x3d,
  0x75, 0xcd, 0x9c, 0xbe, 0x5d, 0xab, 0xb7, 0x3b, 0x5c, 0xda, 0x1a, 0xbe,
  0xce, 0x6b, 0x7a, 0xbd, 0x7c, 0x39, 0x9c, 0x3d, 0xa3, 0xe6, 0x42, 0x3d,
  0xfa, 0x75, 0x84, 0xbe, 0x5f, 0x26, 0x33, 0x3c, 0xe3, 0x43, 0x1a, 0xbe,
  0xd7, 0x72, 0x46, 0xbe, 0x55, 0xd3, 0x65, 0xbe, 0x62, 0x53, 0xfb, 0xbd,
  0x20, 0xfa, 0x9f, 0xbd, 0x06, 0xda, 0xa8, 0x3d, 0x2f, 0x93, 0x04, 0xbf,
  0x78, 0x70, 0x07, 0xbe, 0xb3, 0x75, 0xaf, 0xbe, 0x37, 0x5e, 0xb0, 0xbc,
  0x1f, 0x42, 0x6e, 0xbe, 0xd1, 0xd8, 0xc1, 0xbd, 0x4c, 0xb7, 0x36, 0xbd,
  0xd1, 0x0c, 0xcb, 0xbb, 0xc6, 0xe6, 0x8f, 0xbd, 0xba, 0x76, 0xdc, 0xbd,
  0xff, 0x74, 0x80, 0x3d, 0x8d, 0x49, 0x89, 0x3d, 0xec, 0x0b, 0x95, 0x3e,
  0x87, 0xdc, 0xa8, 0xbd, 0x80, 0x3d, 0x3f, 0x3c, 0x60, 0xd2, 0x86, 0xbd,
  0x96, 0x90, 0x80, 0x3e, 0x97, 0x4a, 0x08, 0xbe, 0x37, 0xb5, 0x4d, 0x3d,
  0x1c, 0xeb, 0x23, 0x3e, 0x8b, 0xae, 0xcf, 0x3d, 0x55, 0x7f, 0x86, 0x3e,
  0x46, 0x62, 0x20, 0x3d, 0x22, 0xde, 0xa2, 0xbd, 0x5c, 0x16, 0x33, 0x3d,
  0x13, 0xc8, 0x4d, 0x3d, 0x25, 0x9e, 0xb0, 0x3d, 0xda, 0x51, 0x9d, 0xbe,
  0xd3, 0x02, 0x83, 0x3e, 0x93, 0x76, 0xfa, 0xbd, 0x17, 0x15, 0xa0, 0xbd,
  0xb8, 0xb5, 0xd7, 0x3d, 0x99, 0x00, 0xfc, 0x3d, 0x7a, 0x23, 0xff, 0x3d,
  0x89, 0x11, 0x20, 0xbe, 0x2a, 0x0d, 0x70, 0xbd, 0x70, 0x10, 0xb8, 0x3d,
  0xb3, 0xa6, 0x49, 0xbe, 0x20, 0x14, 0xe1, 0xbe, 0x4e, 0xad, 0x90, 0x3d,
  0xbe, 0x87, 0x95, 0x3d, 0x4b, 0x50, 0x4b, 0xbd, 0x52, 0xa5, 0x00, 0xbe,
  0x23, 0x55, 0xe3, 0xbc, 0x85, 0x1c, 0xc7, 0xbe, 0x85, 0x04, 0x44, 0xbe,
  0x4b, 0x87, 0xc7, 0xbe, 0xd9, 0x76, 0xdf, 0x3c, 0xfc, 0x83, 0x33, 0x3c,
  0x0e, 0x78, 0x9b, 0xbd, 0x4c, 0x1b, 0x07, 0xbe, 0x66, 0x91, 0xab, 0x3d,
  0xb2, 0x81, 0xbd, 0x3d, 0xa5, 0x9b, 0x2b, 0xbe, 0x71, 0xff, 0x4d, 0xbe,
  0xdd, 0xef, 0x23, 0x3e, 0xdb, 0xd4, 0x39, 0xbe, 0xe3, 0x63, 0x07, 0xbe,
  0x5b, 0x0e, 0xad, 0xbe, 0xcb, 0x76, 0xd0, 0xbe, 0x86, 0x90, 0x05, 0xbf,
  0x3a, 0xa5, 0x4f, 0xbe, 0x36, 0xaa, 0x4d, 0xbe, 0xe0, 0x94, 0x48, 0xbc,
  0x84, 0x7f, 0x95, 0x3d, 0xcf, 0x69, 0x96, 0x3c, 0x01, 0xc3, 0x13, 0x3f,
  0xed, 0xd5, 0xf6, 0x3d, 0x2f, 0xde, 0xf6, 0xbd, 0x9d, 0x43, 0x8e, 0xbe,
  0xe5, 0xf2, 0x95, 0xbe, 0x2d, 0x5d, 0x78, 0x3d, 0xf4, 0x35, 0x9c, 0xbd,
  0x83, 0x95, 0xeb, 0xbc, 0xe7, 0x28, 0x59, 0xbe, 0x58, 0x4e, 0x38, 0x3e,
  0xe4, 0x5a, 0x84, 0x3e, 0xbd, 0x12, 0x53, 0xbc, 0x9c, 0x13, 0x26, 0xbf,
  0xc0, 0xc0, 0x28, 0xbe, 0x5c, 0xe7, 0x61, 0xbe, 0x4d, 0x71, 0xe6, 0xbb,
  0x90, 0x9c, 0xad, 0xbe, 0x66, 0x56, 0x68, 0x3e, 0xc6, 0x40, 0xb8, 0x3d,
  0x00, 0x6e, 0x92, 0x3d, 0xf4, 0xf8, 0xce, 0xbd, 0x89, 0x37, 0xb8, 0xbe,
  0xb0, 0x47, 0xec, 0xbd, 0x09, 0xe2, 0x8d, 0xbe, 0xc0, 0x72, 0xd6, 0x3e,
  0x58, 0xc8, 0xef, 0xbd, 0xf1, 0x1f, 0x6c, 0xbd, 0x5f, 0xb2, 0x42, 0xbd,
  0x3e, 0xd5, 0xfa, 0x3d, 0xd7, 0x8c, 0x0a, 0xbe, 0xbc, 0x73, 0x94, 0x3d,
  0xf1, 0x54, 0x3c, 0xbe, 0xdf, 0x6a, 0xfd, 0x3d, 0xa6, 0xac, 0xe5, 0xbe,
  0x8c, 0x4e, 0x3f, 0xbc, 0xfb, 0xe2, 0xf3, 0xbd, 0x6e, 0x4e, 0x19, 0xbd,
  0xe5, 0xdd, 0xbf, 0xbd, 0x23, 0x74, 0xcd, 0x3d, 0xb6, 0xda, 0x94, 0xbc,
  0x6e, 0x84, 0xba, 0x3e, 0x91, 0xee, 0x7d, 0xbe, 0xaa, 0xfa, 0x88, 0x3d,
  0x4d, 0xa9, 0xab, 0xbd, 0x74, 0x1b, 0xa1, 0xbc, 0x59, 0x34, 0x72, 0x3e,
  0x77, 0xda, 0xce, 0x3d, 0x8d, 0x1e, 0x5e, 0x3e, 0x2c, 0x9e, 0x94, 0x3b,
  0xfa, 0x86, 0x4f, 0xbe, 0x36, 0x2d, 0x7a, 0xbe, 0xb4, 0x89, 0xfb, 0xbd,
  0xe9, 0x9f, 0x86, 0xbe, 0x22, 0x11, 0x40, 0x3d, 0x94, 0x32, 0xec, 0xbd,
  0xd5, 0x89, 0x0f, 0x3e, 0x50, 0xbf, 0xcf, 0xbe, 0x86, 0x95, 0xbb, 0x3e,
  0x42, 0x75, 0xfb, 0x3e, 0x8d, 0x38, 0x8e, 0xbd, 0x8a, 0x8f, 0x81, 0xbe,
  0xe3, 0xda, 0x8f, 0xbd, 0x6a, 0xb6, 0xeb, 0xbe, 0xc0, 0x8e, 0x6f, 0xbd,
  0x9f, 0x7b, 0xd9, 0xbd, 0x65, 0x65, 0x24, 0x3e, 0xed, 0xc3, 0xe0, 0xbd,
  0x67, 0xbf, 0xf5, 0xbd, 0xc1, 0xf8, 0xcf, 0xbd, 0xbf, 0x73, 0xf6, 0xbd,
  0x5b, 0xf0, 0x8c, 0x3b, 0xbd, 0xd5, 0xd8, 0xbd, 0x48, 0x08, 0xec, 0x3d,
  0x4d, 0x11, 0x19, 0xbe, 0x34, 0x11, 0xc0, 0xbd, 0x23, 0x83, 0x9d, 0xbd,
  0xff, 0x50, 0xdf, 0x3c, 0x44, 0xe2, 0xad, 0x3d, 0xc8, 0xb4, 0x0a, 0xbd,
  0xc3, 0x25, 0x8a, 0xbd, 0x35, 0xa7, 0xb9, 0xbd, 0x2e, 0xe6, 0xeb, 0xbe,
  0x7f, 0x01, 0x83, 0x3d, 0x80, 0x08, 0x18, 0x3e, 0xfa, 0xe8, 0x47, 0x3d,
  0xfc, 0x3b, 0xa8, 0x3d, 0x6d, 0x6e, 0x1e, 0xbc, 0xcd, 0x3a, 0x77, 0xbd,
  0x76, 0xb4, 0x3e, 0x3e, 0x86, 0x38, 0xdc, 0xbd, 0x4a, 0x3e, 0x1c, 0x3f,
  0xcf, 0x9e, 0x90, 0xbd, 0x46, 0xaa, 0xa3, 0xbd, 0x18, 0x42, 0x14, 0x3e,
  0x6b, 0x49, 0xb5, 0x3c, 0xbd, 0x58, 0x52, 0xbc, 0x25, 0x31, 0x05, 0xbc,
  0x9a, 0xe2, 0xb9, 0x3d, 0xfe, 0x14, 0xb5, 0xbd, 0x45, 0x81, 0xfb, 0xbc,
  0xf9, 0x85, 0x62, 0xbd, 0x88, 0xfd, 0x4a, 0x3d, 0x98, 0xf7, 0x08, 0x3e,
  0xcd, 0x84, 0xd5, 0xbc, 0x7f, 0x9d, 0x2c, 0xba, 0x89, 0xf8, 0x18, 0xbe,
  0xd0, 0xf3, 0x6c, 0xbc, 0xa4, 0x5d, 0xb0, 0x3c, 0x0c, 0xb6, 0xb0, 0x3b,
  0x51, 0xa5, 0x89, 0x3d, 0xdd, 0x99, 0x26, 0x3d, 0x15, 0xdf, 0x01, 0xbc,
  0xcc, 0x3d, 0x9e, 0xbd, 0xd5, 0xc2, 0x0f, 0xbe, 0xbb, 0x06, 0x1c, 0xbe,
  0x3e, 0x5f, 0xd5, 0x3d, 0x32, 0x00, 0x09, 0x3d, 0xfa, 0x8a, 0x39, 0x3c,
  0x38, 0xe1, 0x46, 0x3a, 0xa4, 0xbe, 0x26, 0xbc, 0x7a, 0xd4, 0x9e, 0xbc,
  0x82, 0xc2, 0xed, 0x3d, 0x33, 0xab, 0x19, 0x3e, 0xea, 0x0b, 0x22, 0xbe,
  0x7c, 0x08, 0xfd, 0x3c, 0x97, 0x0e, 0x83, 0xbe, 0xce, 0x98, 0x13, 0x3e,
  0xf8, 0x05, 0x02, 0x3f, 0x0f, 0xe7, 0x14, 0x3e, 0xd4, 0x59, 0xce, 0x3d,
  0x9a, 0x2b, 0xc1, 0xbc, 0xb7, 0xb8, 0x17, 0xbe, 0xf2, 0xed, 0x87, 0xbd,
  0x37, 0xbf, 0x1f, 0xbe, 0xd4, 0x9e, 0x22, 0xbd, 0x44, 0x6f, 0x0d, 0xbe,
  0x2a, 0xbf, 0x33, 0x3c, 0xb3, 0x2a, 0xff, 0x3d, 0x0e, 0xd3, 0xd8, 0x3d,
  0x3d, 0x91, 0xee, 0xbd, 0xe6, 0x6b, 0x9c, 0xbd, 0xa3, 0x0e, 0x73, 0xbe,
  0xb9, 0x17, 0x9e, 0x3e, 0x57, 0xcf, 0xde, 0xbd, 0x22, 0x61, 0x09, 0x3d,
  0x0e, 0x3b, 0x2c, 0x3d, 0xbb, 0x86, 0x38, 0x3e, 0xf6, 0xc2, 0x15, 0xbe,
  0xe6, 0xb0, 0xec, 0x3d, 0x4e, 0x81, 0x03, 0xbe, 0x50, 0x3a, 0xfa, 0xbd,
  0x9a, 0x57, 0x8c, 0xbd, 0xb4, 0x5a, 0x8d, 0xbe, 0x09, 0x07, 0x42, 0x3e,
  0x18, 0x1b, 0x09, 0x3e, 0x0a, 0x14, 0x29, 0xbe, 0x57, 0xce, 0x2b, 0xbe,
  0xeb, 0x4b, 0xc7, 0x3d, 0x97, 0xb0, 0x9e, 0xbd, 0xd1, 0xd4, 0x6a, 0xbd,
  0xfd, 0xc7, 0xbc, 0x3d, 0x46, 0xa7, 0x64, 0x3e, 0xab, 0x3e, 0x12, 0x3d,
  0x31, 0x78, 0xd0, 0xbd, 0x9a, 0x71, 0xc9, 0xbd, 0x6f, 0xbc, 0xff, 0xbd,
  0x9d, 0x15, 0xd9, 0xbd, 0x04, 0xa3, 0x6b, 0xbe, 0xd8, 0xe3, 0x17, 0x3e,
  0xf4, 0x4c, 0x6d, 0x3d, 0x45, 0x57, 0x91, 0x3d, 0x66, 0x6a, 0xba, 0x3e,
  0x15, 0x6f, 0xa7, 0xbd, 0xc5, 0x4b, 0x54, 0xbe, 0x4d, 0x94, 0xf5, 0xbd,
  0x8f, 0xa7, 0xa1, 0xbe, 0x9e, 0xfe, 0x39, 0x3e, 0x1a, 0x39, 0x68, 0xbe,
  0x48, 0x2d, 0xf9, 0xbd, 0xba, 0x52, 0x0f, 0xbd, 0x3b, 0xe1, 0x0c, 0x3d,
  0x11, 0x09, 0x78, 0xbd, 0xe2, 0xdd, 0xff, 0xff, 0x10, 0x00, 0x00, 0x00,
  0x0a, 0x00, 0x00, 0x00, 0x1c, 0x00, 0x00, 0x00, 0x38, 0x00, 0x00, 0x00,
  0x04, 0x00, 0x00, 0x00, 0x10, 0x00, 0x00, 0x00, 0x04, 0x00, 0x00, 0x00,
  0x01, 0x00, 0x00, 0x00, 0x08, 0x00, 0x00, 0x00, 0x1a, 0x00, 0x00, 0x00,
  0x73, 0x65, 0x71, 0x75, 0x65, 0x6e, 0x74, 0x69, 0x61, 0x6c, 0x2f, 0x63,
  0x6f, 0x6e, 0x76, 0x32, 0x64, 0x5f, 0x31, 0x2f, 0x43, 0x6f, 0x6e, 0x76,
  0x32, 0x44, 0x00, 0x00, 0x58, 0xdd, 0xff, 0xff, 0x62, 0xde, 0xff, 0xff,
  0x04, 0x00, 0x00, 0x00, 0x80, 0x01, 0x00, 0x00, 0x22, 0xfa, 0x18, 0x3d,
  0x83, 0xa0, 0x38, 0xbd, 0x38, 0x19, 0x2a, 0xbc, 0x47, 0x75, 0xbd, 0x3b,
  0xb3, 0xa8, 0x13, 0x3d, 0x47, 0x0d, 0xd5, 0xbe, 0x6f, 0x70, 0xef, 0xbb,
  0x38, 0x52, 0x61, 0x3d, 0x42, 0x41, 0xf9, 0x3e, 0xc7, 0xa3, 0x0a, 0x3d,
  0x5d, 0x14, 0x65, 0x3c, 0x28, 0x2c, 0x15, 0x3d, 0xb8, 0x78, 0x3c, 0x3e,
  0x0c, 0xe2, 0x99, 0xbd, 0xa7, 0x34, 0x48, 0x3c, 0x8d, 0xcd, 0x2e, 0xbe,
  0x7a, 0x0a, 0xfa, 0xbb, 0x78, 0xf8, 0x6e, 0xbd, 0xb2, 0xc5, 0xd9, 0x3e,
  0xcc, 0x59, 0xff, 0x3d, 0xdc, 0x5b, 0xc1, 0xbd, 0x6d, 0x1a, 0x45, 0xbe,
  0xf9, 0x19, 0x01, 0x3d, 0xd0, 0x71, 0x3e, 0x3d, 0x4f, 0x49, 0x9a, 0xbd,
  0x6b, 0x0c, 0xb6, 0x3c, 0x2f, 0xee, 0xc7, 0x3b, 0xca, 0xa3, 0x9f, 0xbe,
  0x93, 0xc7, 0x36, 0xbe, 0x7b, 0xec, 0x52, 0xbe, 0xec, 0xf2, 0x4d, 0xbc,
  0x10, 0xf3, 0x91, 0x3d, 0xa6, 0x38, 0x72, 0xbc, 0x13, 0x50, 0xd1, 0x3e,
  0xe8, 0x77, 0x0d, 0x3e, 0x34, 0x02, 0x5f, 0x3e, 0x4b, 0xb8, 0xb2, 0x3d,
  0xb5, 0x41, 0x36, 0x3d, 0x57, 0x89, 0x53, 0x3b, 0x26, 0x1b, 0x9a, 0x3e,
  0xbc, 0xd7, 0xa3, 0x3e, 0x1d, 0xe9, 0x3e, 0x3e, 0x97, 0x73, 0x33, 0xbe,
  0xd0, 0x66, 0x17, 0xbe, 0xe2, 0xd2, 0xcd, 0xbd, 0x82, 0x13, 0x23, 0xbe,
  0x12, 0xba, 0x3f, 0xbe, 0xa4, 0x3f, 0xdc, 0xbd, 0x3d, 0x6b, 0x9a, 0x3d,
  0x5f, 0xed, 0xae, 0x3c, 0x12, 0xd3, 0x36, 0xbd, 0xbd, 0x35, 0x0f, 0x3e,
  0x58, 0x41, 0x87, 0x3e, 0x9b, 0xe3, 0x98, 0xbe, 0xc6, 0xb9, 0xe8, 0xbd,
  0x53, 0x7d, 0x9d, 0x3d, 0x43, 0xdc, 0x92, 0x3e, 0x9e, 0xef, 0x0d, 0xbe,
  0xd8, 0x6a, 0xad, 0xbe, 0xe8, 0x47, 0x49, 0x3c, 0x43, 0x61, 0x97, 0x3e,
  0x5e, 0xb3, 0x0a, 0xbe, 0x3b, 0x30, 0x4f, 0xba, 0xa0, 0x76, 0xf3, 0x3d,
  0x1e, 0xd1, 0x19, 0xbb, 0xda, 0x6d, 0xa0, 0x3d, 0x63, 0x64, 0x7d, 0xbe,
  0xf9, 0x1f, 0xa0, 0xbc, 0x20, 0x07, 0x88, 0x3d, 0xf9, 0x77, 0x80, 0xbe,
  0xf6, 0xba, 0x51, 0x3d, 0xb1, 0x0f, 0x80, 0x3d, 0xac, 0x77, 0x65, 0x3e,
  0xfc, 0x1b, 0x99, 0xbe, 0x5b, 0xbe, 0x8b, 0xbd, 0x3d, 0xe0, 0x86, 0xbe,
  0x8a, 0x6e, 0x1a, 0x3e, 0xc0, 0xf5, 0x9e, 0x3d, 0x00, 0x94, 0x6f, 0x3d,
  0xeb, 0x1a, 0xa5, 0xbc, 0x21, 0xee, 0x59, 0x3d, 0x6c, 0x2f, 0x8e, 0xbd,
  0xb0, 0x8f, 0xa3, 0x3d, 0xce, 0xfa, 0x15, 0xbe, 0x5f, 0x01, 0x0d, 0xbe,
  0xe3, 0xbc, 0x89, 0xbd, 0xaf, 0xc4, 0x32, 0x3d, 0xcf, 0x0b, 0x44, 0xbd,
  0x91, 0x45, 0x1b, 0xbe, 0x33, 0x3e, 0xb3, 0xbc, 0xe5, 0xdd, 0x49, 0x3e,
  0xcf, 0xc0, 0xb8, 0x3b, 0xa5, 0x65, 0x54, 0x3d, 0x4b, 0x7f, 0x23, 0x3e,
  0xab, 0x28, 0x8a, 0x3d, 0xce, 0x50, 0x18, 0x3d, 0xba, 0xdf, 0xff, 0xff,
  0x10, 0x00, 0x00, 0x00, 0x09, 0x00, 0x00, 0x00, 0x1c, 0x00, 0x00, 0x00,
  0x38, 0x00, 0x00, 0x00, 0x04, 0x00, 0x00, 0x00, 0x08, 0x00, 0x00, 0x00,
  0x04, 0x00, 0x00, 0x00, 0x03, 0x00, 0x00, 0x00, 0x01, 0x00, 0x00, 0x00,
  0x18, 0x00, 0x00, 0x00, 0x73, 0x65, 0x71, 0x75, 0x65, 0x6e, 0x74, 0x69,
  0x61, 0x6c, 0x2f, 0x63, 0x6f, 0x6e, 0x76, 0x32, 0x64, 0x2f, 0x43, 0x6f,
  0x6e, 0x76, 0x32, 0x44, 0x00, 0x00, 0x00, 0x00, 0x30, 0xdf, 0xff, 0xff,
  0x3a, 0xe0, 0xff, 0xff, 0x04, 0x00, 0x00, 0x00, 0x00, 0x01, 0x00, 0x00,
  0xf3, 0xa7, 0xd1, 0x3d, 0xb2, 0x29, 0x05, 0x3e, 0x6d, 0xaa, 0x9e, 0x3e,
  0xa6, 0xd7, 0x86, 0x3e, 0x70, 0xdb, 0xcc, 0xbe, 0x1e, 0xe7, 0x69, 0x3e,
  0xf6, 0x01, 0x8d, 0x3d, 0x0c, 0x03, 0xae, 0x3d, 0xfd, 0x0e, 0x65, 0xbe,
  0x76, 0x70, 0x0d, 0x3e, 0xb8, 0xb4, 0x89, 0x3e, 0x08, 0x6a, 0xdd, 0xbe,
  0xfd, 0x9d, 0x42, 0x3d, 0x2b, 0x4d, 0x16, 0xbd, 0x58, 0x23, 0x5b, 0x3e,
  0x30, 0xf9, 0x2f, 0x3e, 0x57, 0x6c, 0xce, 0x3d, 0x9e, 0xc4, 0x87, 0x3e,
  0xc0, 0x2d, 0x57, 0xbe, 0x94, 0x84, 0x96, 0xbe, 0xac, 0x10, 0x10, 0xbe,
  0x55, 0x3c, 0x96, 0x3e, 0x58, 0x07, 0xc8, 0x3d, 0xa7, 0x16, 0xb3, 0x3d,
  0xc3, 0x93, 0x18, 0xbe, 0x87, 0xc6, 0x48, 0x3e, 0xba, 0x6e, 0x9d, 0x3e,
  0xa0, 0xa0, 0xd9, 0xbe, 0xc5, 0x98, 0x58, 0x3e, 0x44, 0x79, 0xfb, 0x3c,
  0xb4, 0x1d, 0x2b, 0x3e, 0x81, 0x9e, 0xd9, 0xbe, 0x5c, 0xa1, 0x1f, 0xbe,
  0x99, 0x39, 0x5c, 0x3e, 0x34, 0xf8, 0xbf, 0xbd, 0x49, 0xc7, 0x52, 0xbe,
  0x19, 0x6d, 0x59, 0xbd, 0xb8, 0xb9, 0x88, 0x3e, 0x80, 0xf0, 0x55, 0x3d,
  0x06, 0x7c, 0x9f, 0xbc, 0x7f, 0xaa, 0x5c, 0xbe, 0x85, 0x36, 0x56, 0xbd,
  0x8f, 0x53, 0x95, 0x3e, 0x6b, 0xbc, 0xb9, 0xbe, 0x9f, 0x3f, 0x82, 0x3e,
  0x45, 0xe1, 0x11, 0x3d, 0x1a, 0x28, 0x4c, 0x3e, 0xf2, 0xf0, 0xdc, 0xbd,
  0x6d, 0x32, 0x10, 0x3e, 0xc3, 0xb6, 0x45, 0x3e, 0x62, 0x81, 0x78, 0x3d,
  0x2c, 0xfd, 0xac, 0xbe, 0x83, 0xf5, 0x46, 0xbd, 0x6f, 0xbc, 0x4f, 0x3e,
  0x9d, 0x94, 0xdb, 0xbd, 0x46, 0x24, 0x85, 0xbd, 0x3e, 0x01, 0x17, 0xbe,
  0xce, 0x92, 0x3b, 0xbf, 0xe0, 0x70, 0xb4, 0x3c, 0x44, 0xcf, 0xe9, 0xbe,
  0x48, 0xb2, 0x5c, 0x3e, 0x16, 0x82, 0xe5, 0xbc, 0x66, 0x3d, 0xb2, 0x3d,
  0x2f, 0x38, 0xc4, 0xbe, 0x12, 0xe1, 0xff, 0xff, 0x10, 0x00, 0x00, 0x00,
  0x08, 0x00, 0x00, 0x00, 0x14, 0x00, 0x00, 0x00, 0x30, 0x00, 0x00, 0x00,
  0x02, 0x00, 0x00, 0x00, 0x04, 0x00, 0x00, 0x00, 0x10, 0x00, 0x00, 0x00,
  0x19, 0x00, 0x00, 0x00, 0x73, 0x65, 0x71, 0x75, 0x65, 0x6e, 0x74, 0x69,
  0x61, 0x6c, 0x2f, 0x64, 0x65, 0x6e, 0x73, 0x65, 0x5f, 0x31, 0x2f, 0x4d,
  0x61, 0x74, 0x4d, 0x75, 0x6c, 0x00, 0x00, 0x00, 0x80, 0xe0, 0xff, 0xff,
  0x8a, 0xe1, 0xff, 0xff, 0x04, 0x00, 0x00, 0x00, 0x00, 0x1c, 0x00, 0x00,
  0xeb, 0x85, 0x28, 0xbe, 0x5f, 0x12, 0xfc, 0xbd, 0x94, 0xbb, 0xda, 0xbb,
  0x04, 0xd6, 0x9a, 0xbb, 0x52, 0xcc, 0x5f, 0x3d, 0x0c, 0x05, 0x3d, 0x3e,
  0x43, 0xe7, 0x8a, 0x3d, 0x24, 0x49, 0x1e, 0xbe, 0x67, 0x35, 0x25, 0x3e,
  0x27, 0x66, 0x2c, 0xbe, 0xe9, 0xb6, 0x49, 0x3d, 0xd7, 0x24, 0x28, 0xbe,
  0x75, 0xb6, 0x8a, 0x3d, 0x7b, 0x19, 0x06, 0xbd, 0x16, 0x8e, 0x37, 0xbe,
  0x75, 0x70, 0x0e, 0xbd, 0x92, 0xc5, 0xd7, 0x3c, 0x15, 0x4d, 0xe5, 0x3e,
  0x09, 0x12, 0x18, 0xbd, 0x13, 0x5c, 0x37, 0xbe, 0xf7, 0x13, 0x1c, 0x3b,
  0x07, 0x91, 0xc0, 0x3c, 0xab, 0x2b, 0x10, 0x3e, 0x08, 0xba, 0x7a, 0x3e,
  0x7b, 0x92, 0x9e, 0xbd, 0x25, 0xba, 0x76, 0xbd, 0xf5, 0x68, 0x87, 0xbe,
  0x27, 0x40, 0xcf, 0xbe, 0x7b, 0x8c, 0x10, 0x3e, 0xfb, 0x37, 0x9b, 0xbe,
  0x88, 0x53, 0x22, 0x3d, 0xa9, 0xf8, 0xc5, 0x3c, 0x7d, 0xcb, 0xe1, 0x3d,
  0xa5, 0x56, 0xbe, 0x3d, 0x0a, 0x3f, 0x02, 0x3e, 0x92, 0xe8, 0x68, 0xbd,
  0x14, 0xee, 0x6d, 0x3d, 0x22, 0xe4, 0xbc, 0x3e, 0x37, 0xe2, 0x2d, 0x3d,
  0xa2, 0x60, 0x1f, 0xbe, 0x53, 0x85, 0xab, 0x3e, 0xcf, 0x19, 0xc7, 0xbd,
  0xd7, 0x88, 0x80, 0xbd, 0xc1, 0xaf, 0x9f, 0x3d, 0x30, 0x38, 0x0d, 0x3e,
  0xd3, 0x2c, 0x94, 0xbe, 0x80, 0x94, 0x26, 0x3d, 0x8d, 0x82, 0x03, 0xbd,
  0xec, 0x7f, 0x2c, 0xbe, 0x06, 0xb2, 0x73, 0x3d, 0x43, 0xf6, 0xb0, 0x3d,
  0x07, 0xc5, 0x5e, 0x3d, 0x64, 0x2f, 0x0e, 0x3e, 0x15, 0xdf, 0x98, 0xbd,
  0x80, 0x14, 0x9f, 0x3d, 0x91, 0x4d, 0x4b, 0x3e, 0xef, 0x80, 0x99, 0xbd,
  0x66, 0x9e, 0x96, 0xbd, 0xa5, 0x68, 0x93, 0xbe, 0x6f, 0x0f, 0x87, 0x3d,
  0x3c, 0x53, 0xa4, 0x3e, 0xab, 0x53, 0xb3, 0xbe, 0xb7, 0xbe, 0xd9, 0xbc,
  0x78, 0x2f, 0x31, 0x3e, 0x3b, 0x29, 0xe9, 0x3c, 0xe1, 0xcd, 0x49, 0x3e,
  0x5b, 0xd7, 0x91, 0xbe, 0x3a, 0xd9, 0xb7, 0x3d, 0x8f, 0xa1, 0x8b, 0x3d,
  0x17, 0xff, 0xa5, 0xbd, 0x9e, 0x64, 0x92, 0xbd, 0x7e, 0x3b, 0xa4, 0x3e,
  0x8e, 0xed, 0x74, 0x3e, 0x4c, 0x7f, 0x28, 0x3e, 0xa4, 0x63, 0x16, 0x3e,
  0x94, 0xe5, 0x07, 0x3d, 0x75, 0xf7, 0xb3, 0x3d, 0x0c, 0x6e, 0xc0, 0xbd,
  0x15, 0x3b, 0x10, 0xbe, 0x1f, 0xcd, 0x2e, 0xbe, 0x6f, 0x2b, 0xfb, 0xbc,
  0x68, 0xcd, 0x2c, 0x3e, 0x18, 0xf9, 0x56, 0xbe, 0xe6, 0x51, 0x37, 0xbe,
  0x34, 0x42, 0x39, 0xbd, 0x55, 0x2f, 0xc7, 0x3c, 0x30, 0x06, 0x90, 0xbe,
  0xc1, 0xa3, 0x0c, 0x3f, 0x8c, 0x74, 0x86, 0xbd, 0x69, 0x93, 0x46, 0xbe,
  0x42, 0xe0, 0x8b, 0x3d, 0x4a, 0x14, 0x3d, 0xbd, 0x82, 0xcd, 0x51, 0xbd,
  0x9b, 0xc1, 0xeb, 0xbd, 0x1b, 0x01, 0x24, 0xbe, 0x17, 0xe7, 0x0f, 0xbe,
  0x70, 0xb8, 0x30, 0xbe, 0x7c, 0x06, 0xf5, 0x3d, 0x06, 0xb3, 0x12, 0x3e,
  0xa4, 0x4e, 0x3e, 0xbd, 0x82, 0xff, 0x88, 0xbc, 0x64, 0xbf, 0x2b, 0xbe,
  0x31, 0x9d, 0xfa, 0xbd, 0x8e, 0xb4, 0x02, 0xbe, 0x0d, 0x30, 0xaf, 0xbd,
  0xef, 0x22, 0xf9, 0xbc, 0x83, 0xc4, 0x1e, 0x3e, 0xdb, 0x0a, 0x36, 0xbe,
  0x34, 0x7f, 0xdb, 0xbd, 0xde, 0x5c, 0x85, 0xbe, 0x60, 0xe9, 0x9f, 0xbe,
  0x6c, 0x1c, 0x77, 0xbe, 0x4c, 0x0d, 0x1b, 0x3c, 0x9a, 0xaf, 0x0d, 0xbe,
  0x72, 0x3c, 0xb1, 0xbd, 0x44, 0x79, 0x86, 0x3e, 0x6a, 0x69, 0x2a, 0x3d,
  0x12, 0x45, 0x07, 0xbe, 0x9d, 0x10, 0x01, 0xbd, 0x58, 0xeb, 0x7a, 0xbd,
  0xd6, 0x8f, 0xca, 0xbc, 0x4f, 0x77, 0xa8, 0x3c, 0xab, 0xe8, 0x29, 0x3e,
  0x38, 0xc4, 0x97, 0xbd, 0xf5, 0xc3, 0x73, 0x3e, 0x3f, 0xf6, 0x05, 0xbe,
  0x0c, 0x77, 0x74, 0x3e, 0x7a, 0xa6, 0xa3, 0x3d, 0x06, 0x2a, 0xe3, 0x3c,
  0x79, 0x50, 0x63, 0x3d, 0x67, 0x43, 0x84, 0xbd, 0xa2, 0xa3, 0x00, 0x3e,
  0xd8, 0x7e, 0x64, 0xbd, 0xe7, 0x3e, 0xed, 0xbc, 0xfc, 0x8f, 0xc0, 0xbc,
  0x22, 0xd6, 0x69, 0x3e, 0xf3, 0x41, 0xfb, 0xbd, 0xf3, 0x8b, 0x86, 0xbc,
  0x3c, 0xc4, 0xc6, 0x3d, 0xa6, 0xf2, 0x99, 0xbd, 0x37, 0x53, 0xa3, 0x3e,
  0x35, 0x82, 0x55, 0xbd, 0x87, 0x75, 0x5c, 0xbd, 0x50, 0x50, 0x54, 0xbe,
  0x38, 0x2c, 0xb1, 0xbd, 0x52, 0x63, 0x1d, 0x3d, 0x4c, 0x7a, 0x84, 0xbd,
  0xa2, 0x0a, 0x50, 0xbd, 0x4d, 0x14, 0xa5, 0xbd, 0xd2, 0xdb, 0xe1, 0x3d,
  0x4c, 0xce, 0x44, 0xbe, 0x1d, 0xe8, 0xba, 0x3e, 0x1c, 0xc5, 0x79, 0x3e,
  0xac, 0x9a, 0x59, 0x3e, 0xec, 0x57, 0x15, 0x3e, 0x45, 0x44, 0x76, 0xbd,
  0xc8, 0x51, 0x1e, 0x3e, 0x5c, 0x55, 0x6c, 0xbe, 0x70, 0xb4, 0x43, 0xbe,
  0x77, 0x3d, 0x34, 0xbe, 0x44, 0x6b, 0x9e, 0xbe, 0x77, 0x3e, 0x52, 0x3d,
  0x64, 0x7c, 0x01, 0xbe, 0x64, 0x34, 0xdc, 0x3c, 0x53, 0xba, 0xf0, 0xbd,
  0x62, 0xba, 0x32, 0x3e, 0x4e, 0x47, 0x39, 0xbe, 0x70, 0xd8, 0x1f, 0x3d,
  0x70, 0x41, 0xd9, 0x3c, 0x8b, 0x1a, 0xa5, 0xbe, 0xd0, 0x20, 0x1c, 0x3e,
  0xe3, 0x1f, 0x88, 0xbe, 0x7a, 0xba, 0xb9, 0x3d, 0xe1, 0x19, 0x49, 0xbe,
  0x40, 0x90, 0x88, 0xbe, 0x0a, 0x30, 0x1c, 0xbd, 0xf6, 0x1d, 0xe2, 0xbd,
  0x87, 0x6e, 0x1c, 0x3e, 0xb3, 0x83, 0x67, 0xbe, 0x73, 0x3d, 0x87, 0xbd,
  0x52, 0xe9, 0xb0, 0x3d, 0x6e, 0x66, 0x8c, 0xbc, 0xf6, 0x92, 0x37, 0xbd,
  0xbc, 0x3f, 0x1d, 0x3e, 0x4e, 0x84, 0x89, 0x3c, 0x28, 0x52, 0x94, 0xbd,
  0xc8, 0x65, 0x73, 0x3d, 0xf6, 0x13, 0xf2, 0xbc, 0x18, 0x55, 0x68, 0xbe,
  0x10, 0xcb, 0x3e, 0xbe, 0xf4, 0xca, 0x41, 0xbe, 0x46, 0x30, 0x58, 0x3d,
  0x90, 0xa3, 0x4c, 0xbd, 0x58, 0x26, 0x8c, 0xbc, 0xcf, 0x78, 0xcc, 0x3d,
  0x92, 0xd2, 0xc9, 0x3d, 0x52, 0x8a, 0x64, 0x3d, 0x1d, 0x93, 0x6f, 0x3e,
  0x33, 0x0f, 0x3d, 0xbc, 0x5e, 0x75, 0x2d, 0xbe, 0xb0, 0x1a, 0x54, 0x3e,
  0x4e, 0xc0, 0x2b, 0xbe, 0x70, 0x4c, 0x31, 0x3e, 0xd4, 0x07, 0xce, 0xbd,
  0x45, 0x6f, 0x19, 0x3c, 0x70, 0xac, 0x4a, 0xbe, 0x3a, 0x78, 0x90, 0xbe,
  0xa5, 0x46, 0x5f, 0xbe, 0xc3, 0xab, 0x4e, 0xbe, 0xe5, 0xf5, 0x10, 0xbe,
  0xa4, 0xdc, 0x00, 0xbe, 0x41, 0x70, 0x45, 0xbc, 0xd9, 0x91, 0x4d, 0xbe,
  0x38, 0x3e, 0x78, 0xbd, 0x3d, 0x73, 0xef, 0x3c, 0xdf, 0xe2, 0x01, 0xbe,
  0x27, 0xba, 0x1d, 0xbe, 0x1d, 0x25, 0x2d, 0xbe, 0xa1, 0x4f, 0x4d, 0x3d,
  0x7f, 0x52, 0x39, 0xbd, 0x3e, 0xb9, 0x01, 0xbe, 0xbb, 0x36, 0x27, 0xbd,
  0x50, 0x62, 0x82, 0xbe, 0xbc, 0x16, 0x10, 0xbe, 0x33, 0x4c, 0x18, 0xbe,
  0xf2, 0x11, 0x86, 0xbe, 0x9d, 0x57, 0xad, 0xbb, 0x82, 0x87, 0x6d, 0xbe,
  0x27, 0xcf, 0xc4, 0x3d, 0x0c, 0xb0, 0x0a, 0x3f, 0xa2, 0x7f, 0x44, 0xbd,
  0xf1, 0xca, 0x23, 0x3e, 0x54, 0x48, 0x9a, 0x3e, 0xb4, 0xa1, 0x7a, 0xbe,
  0x66, 0x89, 0x43, 0xbe, 0x7c, 0xd9, 0x87, 0xbe, 0x42, 0xe2, 0xf1, 0xbd,
  0x9e, 0xa4, 0xf1, 0xbd, 0xee, 0xea, 0x3e, 0xbe, 0x1d, 0x20, 0x9c, 0xbb,
  0x5a, 0xe6, 0x29, 0xbe, 0xd3, 0xce, 0x82, 0xbd, 0xc7, 0xc1, 0x3c, 0xbd,
  0xfa, 0x6d, 0x87, 0xbe, 0x74, 0x85, 0xab, 0x3f, 0x1e, 0xf8, 0x1d, 0x3f,
  0xcf, 0xb3, 0x14, 0xbc, 0x87, 0x79, 0xac, 0x3e, 0xdf, 0x29, 0x1c, 0x3f,
  0x41, 0x5c, 0x2d, 0x3d, 0xf0, 0xd5, 0x21, 0xbe, 0x08, 0xe7, 0x50, 0xbe,
  0x83, 0x4f, 0x04, 0xbd, 0x2e, 0x5b, 0xe4, 0xbe, 0xf1, 0xd9, 0x6c, 0xbc,
  0x1c, 0xff, 0xbe, 0x3c, 0x2b, 0x87, 0x63, 0xbe, 0x23, 0x10, 0x89, 0xbd,
  0x2d, 0x23, 0x69, 0xbd, 0xe7, 0x61, 0x4f, 0xbe, 0x67, 0x9e, 0xb9, 0x3f,
  0x51, 0xee, 0x37, 0x3f, 0xfb, 0x80, 0x2d, 0xbb, 0xb3, 0x39, 0x15, 0x3f,
  0x0b, 0x02, 0x12, 0x3f, 0x6f, 0xa6, 0x85, 0xbd, 0x84, 0x5f, 0x37, 0xbe,
  0xe5, 0xca, 0xf2, 0xbc, 0xcd, 0x08, 0x7d, 0x3d, 0x18, 0x14, 0x86, 0xbe,
  0xd9, 0x14, 0xb9, 0xbe, 0x2c, 0x18, 0x33, 0x3c, 0xf7, 0xa2, 0x6e, 0x3d,
  0xe7, 0x44, 0x79, 0x3e, 0xa2, 0x28, 0x83, 0xbe, 0xe7, 0x9a, 0x24, 0xbd,
  0x71, 0x8e, 0x91, 0x3f, 0xc0, 0x9c, 0x2a, 0x3f, 0x29, 0x10, 0x30, 0x3e,
  0xed, 0xd9, 0xd0, 0x3e, 0x80, 0x5f, 0x65, 0x3e, 0x6f, 0x45, 0x93, 0xbc,
  0xf6, 0x80, 0x2a, 0x3e, 0x10, 0xe4, 0x06, 0xbe, 0x2d, 0x3d, 0xc1, 0x3e,
  0x21, 0xb3, 0x7e, 0xbe, 0x9f, 0xa0, 0x86, 0xbe, 0x73, 0x27, 0x89, 0x3e,
  0xf5, 0xf0, 0x81, 0x3e, 0x33, 0x7a, 0x46, 0xbd, 0x9a, 0xda, 0xca, 0xbe,
  0x1b, 0x76, 0x06, 0xbe, 0xec, 0x2f, 0x98, 0x3f, 0xd5, 0x7d, 0x65, 0x3f,
  0xe0, 0x20, 0xfd, 0xbc, 0x6f, 0x64, 0xfd, 0x3e, 0xc8, 0x1b, 0x86, 0x3e,
  0xde, 0x41, 0x87, 0x3d, 0x44, 0xdb, 0x26, 0xbc, 0xa8, 0xf8, 0xb7, 0xbd,
  0x38, 0x79, 0x3b, 0x3e, 0x0c, 0xa3, 0x92, 0xbe, 0xc6, 0xc7, 0x19, 0xbd,
  0x1f, 0x52, 0x86, 0xbe, 0x7c, 0x36, 0x9e, 0xbe, 0xc8, 0xb2, 0x9e, 0xbe,
  0x61, 0x07, 0x83, 0xbd, 0x66, 0x1f, 0xea, 0xbd, 0xaf, 0x00, 0x1f, 0x3e,
  0x3c, 0x04, 0x31, 0x3f, 0xc0, 0xa6, 0x15, 0xba, 0x86, 0xa5, 0xc8, 0x3e,
  0xbc, 0x1c, 0x34, 0x3d, 0xf3, 0x76, 0xda, 0x3c, 0x69, 0x48, 0x24, 0xbe,
  0x7f, 0xfc, 0x23, 0xbe, 0x59, 0x3e, 0xfc, 0xbd, 0xe0, 0xaa, 0xb7, 0xbe,
  0x90, 0xfa, 0x29, 0xbe, 0xcc, 0xff, 0xa3, 0xbe, 0x99, 0x92, 0x57, 0xbe,
  0x32, 0x21, 0x22, 0x3d, 0xb0, 0x42, 0x3e, 0xbe, 0x32, 0xbd, 0x10, 0xbe,
  0xa2, 0x92, 0x92, 0x3e, 0x42, 0x08, 0x3c, 0xbe, 0x6c, 0xf0, 0x80, 0xbd,
  0x61, 0x7c, 0xcd, 0x3e, 0x01, 0xda, 0x5f, 0x3e, 0x85, 0x56, 0x06, 0xbe,
  0xcf, 0xfe, 0xb8, 0xbe, 0x54, 0x12, 0xd8, 0xbd, 0xf6, 0xf3, 0x08, 0x3c,
  0x6e, 0x97, 0xc4, 0xbe, 0x9f, 0xbd, 0x3c, 0xbe, 0x41, 0x83, 0x5f, 0xbe,
  0xd2, 0x4d, 0x4d, 0xbe, 0x8e, 0x84, 0xb8, 0xbd, 0x43, 0x3b, 0xd0, 0x3d,
  0xd7, 0x33, 0x30, 0x3e, 0x5c, 0xb7, 0xac, 0x3e, 0x26, 0xf3, 0xa7, 0x3e,
  0xa8, 0x9a, 0x5d, 0x3e, 0x8f, 0x44, 0x99, 0x3e, 0x6f, 0x50, 0xa9, 0x3e,
  0x5f, 0xe6, 0x56, 0xbe, 0x51, 0x4d, 0x9e, 0xbe, 0x75, 0x1c, 0xf5, 0xbd,
  0xb4, 0xf9, 0xc8, 0xbc, 0x28, 0x7e, 0xd5, 0xbe, 0x62, 0xcd, 0x7d, 0xbe,
  0x41, 0xa3, 0x7b, 0x3c, 0x2d, 0xc0, 0x69, 0xbd, 0x24, 0x4b, 0x62, 0xbe,
  0xc0, 0x64, 0x91, 0xbe, 0x1b, 0x2b, 0x2a, 0x3d, 0x3e, 0xb8, 0x7a, 0x3f,
  0x7b, 0x27, 0xb3, 0x3e, 0x89, 0x05, 0xb3, 0x3e, 0xaf, 0x55, 0x3d, 0x3d,
  0x86, 0xda, 0x67, 0x3e, 0xeb, 0x34, 0xd0, 0xbd, 0x3d, 0x84, 0x27, 0xbe,
  0x04, 0x01, 0x8d, 0xbe, 0xee, 0x1c, 0xde, 0xbc, 0x30, 0x23, 0x96, 0xbe,
  0x78, 0x51, 0x3b, 0xbd, 0x11, 0xf9, 0xc3, 0x3b, 0x46, 0x7a, 0xcf, 0x3c,
  0x1d, 0x63, 0x3a, 0x3d, 0x0f, 0x9d, 0x67, 0xbd, 0xc9, 0xdc, 0x8c, 0xbe,
  0x9e, 0xcc, 0x8d, 0x3f, 0x58, 0x07, 0xfe, 0x3e, 0xaf, 0x80, 0x30, 0x3e,
  0xbd, 0x1c, 0x65, 0x3e, 0x69, 0xb0, 0xb0, 0x3e, 0xc9, 0x12, 0xdc, 0xbc,
  0xf1, 0x75, 0x76, 0xbe, 0x00, 0xe7, 0x76, 0xbd, 0x0b, 0xcf, 0xa6, 0x3b,
  0x25, 0xe8, 0x82, 0xbe, 0xe5, 0xc0, 0xb2, 0xbe, 0xe9, 0x8e, 0x34, 0x3c,
  0x6e, 0xea, 0x91, 0xbe, 0xdf, 0x88, 0xf3, 0xbd, 0x38, 0x7f, 0x56, 0xbe,
  0x76, 0x82, 0xe8, 0xbd, 0x25, 0x5f, 0xb1, 0x3f, 0x80, 0xf2, 0x0a, 0x3f,
  0xed, 0xec, 0x84, 0x3e, 0x0f, 0x01, 0xb4, 0x3e, 0x17, 0x0f, 0x4b, 0x3e,
  0x20, 0x5c, 0xd7, 0xbd, 0x5a, 0xc6, 0x07, 0x3d, 0xfe, 0x95, 0x44, 0xbd,
  0xac, 0x56, 0x57, 0x3d, 0x6d, 0x34, 0xe2, 0xbd, 0x16, 0x97, 0x1a, 0xbd,
  0xe6, 0x8e, 0xe8, 0xbd, 0x53, 0xae, 0x6c, 0x3c, 0x39, 0xc2, 0x8c, 0xbe,
  0x15, 0x2c, 0x0f, 0x3c, 0x61, 0xd1, 0x7b, 0xbc, 0x3f, 0x30, 0x1e, 0x3f,
  0x1b, 0x4f, 0x13, 0x3f, 0xf6, 0x99, 0x82, 0x3d, 0x59, 0x43, 0x2c, 0x3f,
  0x55, 0xc3, 0xeb, 0x3c, 0x8b, 0x54, 0x6c, 0xbe, 0x01, 0xaa, 0x92, 0xbc,
  0x75, 0x10, 0x30, 0xbe, 0x6f, 0x8c, 0xb7, 0x3b, 0xd2, 0xab, 0x80, 0xbe,
  0x30, 0x5b, 0x50, 0xbe, 0x23, 0x14, 0x90, 0x3c, 0x44, 0xb3, 0x3b, 0xbe,
  0xe1, 0x8b, 0x0d, 0xbd, 0x0f, 0xb5, 0x37, 0xbe, 0x51, 0xfd, 0x8a, 0xbe,
  0x86, 0xb0, 0x7e, 0x3e, 0x3e, 0x9a, 0x1c, 0x3f, 0x5f, 0x5b, 0xd2, 0x3c,
  0x57, 0x9b, 0x2e, 0x3f, 0x7a, 0x39, 0x80, 0x3d, 0x9b, 0xf1, 0xa2, 0x3d,
  0xb3, 0x3c, 0x9c, 0xbd, 0x67, 0x9b, 0x50, 0xbe, 0x08, 0x45, 0xc2, 0xbd,
  0x02, 0xc0, 0x9e, 0xbe, 0x07, 0x5c, 0x03, 0xbf, 0x2a, 0x61, 0x75, 0xbe,
  0xf5, 0x83, 0xb1, 0xbe, 0xae, 0xb4, 0x88, 0xbe, 0x65, 0x0f, 0x8c, 0xbe,
  0x92, 0x44, 0x6b, 0xbe, 0x5b, 0x15, 0x1a, 0x3f, 0xbf, 0x1c, 0x83, 0xbe,
  0x27, 0x71, 0xba, 0xbd, 0x94, 0xd0, 0xa2, 0x3e, 0x51, 0xb8, 0x07, 0x3e,
  0x8e, 0xfe, 0x61, 0xbe, 0x17, 0x1d, 0xab, 0xbe, 0x9a, 0x24, 0x12, 0xbe,
  0xab, 0x9b, 0x37, 0xbe, 0xa7, 0x12, 0x8a, 0xbe, 0xa6, 0x58, 0x51, 0xbe,
  0x7f, 0xaa, 0xb8, 0xbe, 0x3f, 0x2a, 0x61, 0x3d, 0xe7, 0x47, 0x53, 0xbe,
  0xb1, 0x91, 0xf6, 0x3d, 0x04, 0x68, 0xa4, 0xbe, 0x57, 0x3a, 0xea, 0xbd,
  0xba, 0xe7, 0x70, 0x3e, 0x22, 0x80, 0xfe, 0xbd, 0x4a, 0x0f, 0x4f, 0x3e,
  0xc9, 0x35, 0x53, 0xbe, 0xda, 0x82, 0xaa, 0x3e, 0x59, 0x10, 0xad, 0xbd,
  0xe9, 0x72, 0xc2, 0xbd, 0x61, 0xc9, 0xcd, 0x3d, 0x56, 0xa7, 0x52, 0xbd,
  0x4c, 0x5b, 0x6d, 0x3d, 0x0a, 0xcd, 0xb2, 0xbd, 0x26, 0x7a, 0xa8, 0xbe,
  0x50, 0x47, 0x9a, 0xbd, 0x30, 0x2b, 0x2d, 0xbe, 0x3a, 0x1e, 0x88, 0xbd,
  0x1e, 0x9b, 0xca, 0xbd, 0xa5, 0x17, 0x4a, 0x3e, 0x2d, 0x50, 0xa6, 0x3e,
  0x27, 0x67, 0xe9, 0xbd, 0xd1, 0x63, 0x42, 0xbe, 0x6f, 0xa5, 0x4f, 0xbd,
  0x34, 0x4d, 0x18, 0x3c, 0x6f, 0xc2, 0xd1, 0xbd, 0x16, 0xf2, 0xe5, 0xbd,
  0xd9, 0x1b, 0x94, 0xbe, 0xc4, 0x52, 0x9d, 0x3c, 0xdb, 0xf8, 0x5e, 0x3d,
  0x29, 0x4f, 0x45, 0xbd, 0x3e, 0x4b, 0x68, 0x3c, 0x50, 0x0e, 0x73, 0x3d,
  0x52, 0x08, 0x3e, 0x3d, 0x8f, 0x91, 0x8a, 0x3d, 0xfa, 0x5b, 0x7e, 0x3e,
  0xf4, 0x01, 0xb8, 0xbd, 0x7e, 0xa4, 0x98, 0xbe, 0x73, 0x2b, 0x6f, 0xbe,
  0x1b, 0x95, 0x9a, 0x3c, 0x4b, 0x16, 0x72, 0xbc, 0xe3, 0x80, 0xfb, 0xbc,
  0xa8, 0x2e, 0xb5, 0xbd, 0x1e, 0xa0, 0x94, 0xbd, 0x7d, 0x50, 0xe8, 0x3c,
  0x1d, 0xa5, 0x4f, 0xbe, 0x6c, 0x23, 0x18, 0xbe, 0x06, 0x40, 0xd6, 0xbe,
  0xe5, 0xca, 0xed, 0xbc, 0x7d, 0xe3, 0x40, 0xbd, 0x00, 0x32, 0xfb, 0xbd,
  0xd2, 0xe0, 0x1c, 0x3c, 0x95, 0x0b, 0xe2, 0x3c, 0x08, 0x9f, 0x49, 0xbe,
  0xb8, 0x5f, 0xed, 0x3d, 0x92, 0x3f, 0x61, 0x3e, 0x04, 0xbb, 0x62, 0x3d,
  0x5b, 0xf9, 0xae, 0x3d, 0xca, 0xb0, 0x2b, 0x3d, 0xab, 0x9a, 0x1c, 0x3d,
  0x05, 0x0d, 0x3a, 0x3d, 0x04, 0xee, 0x7d, 0xbe, 0x6f, 0xc7, 0x0d, 0xbd,
  0xf7, 0x02, 0x3e, 0xbe, 0x89, 0x8c, 0xb5, 0x3d, 0x02, 0xfa, 0x6a, 0xbe,
  0xa5, 0xab, 0x05, 0xbc, 0xc5, 0x79, 0x39, 0x3e, 0xad, 0xe0, 0xa2, 0x3b,
  0x34, 0xf8, 0x28, 0x3d, 0xd2, 0x1e, 0x6e, 0xbe, 0x8b, 0x40, 0xf3, 0xbd,
  0xdb, 0x22, 0x48, 0x3d, 0xe7, 0x25, 0x24, 0x3d, 0xc6, 0x96, 0x15, 0x3e,
  0x8c, 0xb7, 0x8c, 0xbe, 0xe2, 0x5d, 0x2c, 0xbe, 0x3e, 0x13, 0x16, 0x3d,
  0x5f, 0x8a, 0xcc, 0x3d, 0x71, 0x76, 0xab, 0xbe, 0x33, 0xd4, 0x14, 0xbe,
  0x50, 0x46, 0x8b, 0x3a, 0x2b, 0xab, 0xab, 0xbd, 0xcc, 0x2e, 0x8f, 0x3e,
  0x97, 0x93, 0x46, 0x3b, 0x23, 0x35, 0x3b, 0xbe, 0x09, 0x46, 0x6c, 0xbe,
  0xa1, 0x4b, 0x29, 0x3e, 0x78, 0x17, 0xb1, 0xbd, 0x6a, 0xf9, 0x59, 0x3d,
  0x29, 0x37, 0x9e, 0xbd, 0x91, 0x73, 0x92, 0xbe, 0x0f, 0x1d, 0x15, 0xbe,
  0x0b, 0xf9, 0x58, 0xbe, 0xe0, 0x32, 0x37, 0xbe, 0x73, 0x8f, 0x7a, 0x3d,
  0x09, 0x77, 0xc8, 0xbc, 0x59, 0xab, 0x90, 0xbe, 0xeb, 0x4c, 0x5f, 0xbe,
  0xe2, 0x85, 0x19, 0x3e, 0x32, 0x6b, 0xf4, 0xbd, 0xc5, 0xde, 0x0e, 0x3e,
  0xa7, 0x95, 0xc5, 0xbd, 0xd6, 0x6b, 0x22, 0xbe, 0x6f, 0x06, 0x6b, 0x3d,
  0x62, 0x86, 0x43, 0x3c, 0xc3, 0x22, 0x11, 0x3e, 0xca, 0xba, 0x4d, 0x3b,
  0xc1, 0x4e, 0x90, 0x3d, 0x14, 0x37, 0xe9, 0xbe, 0x76, 0xfe, 0xb2, 0x3d,
  0xdb, 0x8b, 0x85, 0xbf, 0xf5, 0x85, 0xa8, 0xbd, 0x46, 0x2c, 0x63, 0x3e,
  0xe3, 0xd1, 0xe1, 0x3e, 0x0a, 0xad, 0xf5, 0xbd, 0x6f, 0xf0, 0x5f, 0xbe,
  0x0f, 0xf2, 0x60, 0x3e, 0x8a, 0x6c, 0x15, 0xbe, 0x94, 0x59, 0x9b, 0x3e,
  0x48, 0x8b, 0x01, 0x3f, 0xf3, 0xc4, 0x03, 0x3e, 0x27, 0x86, 0x7e, 0x3e,
  0x68, 0xb6, 0x22, 0x3e, 0xcd, 0x42, 0x92, 0x3c, 0xad, 0x5f, 0x57, 0xbe,
  0x6b, 0x5f, 0xe7, 0xbe, 0x75, 0x89, 0xf3, 0xbe, 0x48, 0x35, 0x36, 0xbe,
  0xc8, 0xf7, 0xa0, 0x3d, 0xb2, 0x88, 0x8b, 0xbe, 0x86, 0x7d, 0x70, 0xbd,
  0xf1, 0x40, 0x71, 0xbd, 0xb3, 0x00, 0xd8, 0xbe, 0xe1, 0xab, 0xa5, 0xbe,
  0xd8, 0xa6, 0xb1, 0x3c, 0x99, 0x8f, 0x00, 0xbe, 0xc5, 0xd1, 0xfd, 0xbd,
  0xb6, 0x85, 0xad, 0x3d, 0x47, 0x5b, 0x4f, 0xbe, 0x96, 0x2a, 0x92, 0xbd,
  0xdd, 0x06, 0xa5, 0xbe, 0xcf, 0x57, 0x97, 0xbe, 0x39, 0xb8, 0x04, 0xbf,
  0x17, 0x8e, 0xce, 0xbd, 0x8c, 0xe5, 0x8c, 0x3d, 0xe6, 0x11, 0xe0, 0xbd,
  0xb3, 0xa1, 0x8c, 0xbe, 0xad, 0x69, 0x89, 0x3c, 0x14, 0xd3, 0x34, 0xbd,
  0xed, 0x53, 0xb5, 0xbe, 0xeb, 0x29, 0xb5, 0xbd, 0x3d, 0x09, 0x80, 0xbc,
  0x4a, 0x03, 0x70, 0xbc, 0xa2, 0xc0, 0x0c, 0xbe, 0x8c, 0x79, 0xd4, 0xbd,
  0xe7, 0x55, 0xd8, 0xbd, 0x57, 0x41, 0xcd, 0xbe, 0x54, 0xaf, 0xee, 0xbe,
  0x43, 0xcf, 0x83, 0xbe, 0x94, 0xd6, 0xdb, 0x3c, 0xa8, 0x6d, 0x1a, 0xba,
  0x7d, 0x0d, 0xc3, 0x3e, 0xa1, 0x1c, 0x31, 0xbd, 0xfe, 0xaf, 0x24, 0x3e,
  0x01, 0xfc, 0x9e, 0xbd, 0xa9, 0x60, 0x11, 0xbf, 0x50, 0x9e, 0x37, 0x3d,
  0xee, 0xf7, 0x9e, 0xbe, 0x9f, 0xf4, 0x36, 0x3e, 0xfe, 0xc0, 0xf4, 0xbe,
  0xd6, 0x9c, 0xc1, 0xbd, 0x71, 0x78, 0xe9, 0xbd, 0x45, 0x96, 0x17, 0xbf,
  0xa2, 0x6a, 0x0b, 0xbf, 0x16, 0x04, 0xc0, 0xbe, 0x00, 0xcd, 0x62, 0x3e,
  0xe5, 0x8e, 0xbb, 0xb8, 0xf1, 0x5a, 0xf5, 0x3e, 0x0e, 0x8d, 0xa3, 0xbe,
  0xfc, 0xef, 0xbe, 0x3d, 0xa1, 0x53, 0x52, 0xbe, 0x24, 0x61, 0xdd, 0xbd,
  0x09, 0xd7, 0xfb, 0x3b, 0xed, 0x64, 0xb6, 0x3e, 0xbf, 0x13, 0x03, 0x3e,
  0x29, 0xf4, 0x8c, 0xbe, 0x47, 0xa7, 0xd5, 0xbd, 0xa6, 0x35, 0x2e, 0xbd,
  0x3d, 0x1c, 0xba, 0x3d, 0xd4, 0x86, 0xbf, 0x3b, 0x20, 0x2c, 0x09, 0xbf,
  0xd1, 0x14, 0x92, 0x3e, 0x7c, 0xea, 0xe3, 0xbd, 0xde, 0x87, 0x4b, 0x3e,
  0xbe, 0xc2, 0x29, 0xbe, 0x59, 0xbc, 0x40, 0x3d, 0x2b, 0x90, 0xc5, 0xbe,
  0xab, 0x35, 0xa7, 0xbd, 0xf7, 0xfb, 0xd5, 0xbd, 0xa5, 0x3d, 0x7e, 0x3e,
  0x37, 0x53, 0x2b, 0xbe, 0x14, 0xfc, 0xd1, 0x3d, 0xec, 0xe5, 0xde, 0xbc,
  0x50, 0xbb, 0xfd, 0x3b, 0xdc, 0x79, 0xd2, 0x3c, 0x58, 0x47, 0xf3, 0x3c,
  0x0c, 0x39, 0x94, 0xbe, 0x35, 0x4a, 0x5c, 0x3e, 0xe4, 0xe3, 0xf1, 0xbd,
  0x16, 0x67, 0x12, 0x3c, 0x64, 0xf2, 0x97, 0xbd, 0x7e, 0x18, 0x34, 0x3e,
  0xbd, 0x98, 0x63, 0xbe, 0x86, 0x43, 0x79, 0x3e, 0xea, 0x17, 0xd0, 0xbd,
  0xe7, 0xa7, 0xc3, 0x3d, 0xc6, 0xbd, 0xc4, 0x3c, 0x9c, 0xad, 0xa9, 0x3d,
  0xf8, 0xfe, 0x8c, 0x3d, 0xa0, 0x74, 0xcf, 0x3b, 0x3f, 0x3f, 0xa5, 0x3d,
  0x4c, 0x64, 0xe0, 0x3d, 0x57, 0x62, 0x70, 0xbd, 0x51, 0xf0, 0x5a, 0xbc,
  0x5c, 0x69, 0x95, 0x3e, 0xab, 0x00, 0xcd, 0xbd, 0xc1, 0xbd, 0xb9, 0xbb,
  0x2e, 0x23, 0x92, 0x3d, 0x8d, 0x27, 0x41, 0x3e, 0x36, 0xa8, 0xbd, 0x3c,
  0x2a, 0xcb, 0x51, 0x3e, 0xb1, 0xa9, 0x46, 0x3e, 0x56, 0x27, 0x67, 0xbe,
  0x7e, 0xb2, 0x05, 0x3d, 0x98, 0x75, 0xe7, 0x3d, 0x0b, 0x14, 0x13, 0x3e,
  0x97, 0x1d, 0x08, 0x3e, 0xdf, 0x6f, 0xd7, 0x3d, 0xff, 0xdd, 0xa9, 0x3c,
  0x36, 0xb0, 0x95, 0xbe, 0xf4, 0x32, 0x16, 0xbd, 0xb4, 0xfe, 0x3d, 0x3f,
  0x23, 0x9b, 0xb7, 0xbc, 0x3a, 0x27, 0x18, 0xbe, 0x0a, 0x5e, 0x0d, 0x3e,
  0xf3, 0xaa, 0x6c, 0xbe, 0x01, 0x77, 0x5e, 0xbd, 0xc2, 0x0e, 0x83, 0x3d,
  0xc7, 0xfd, 0x59, 0x3e, 0xd2, 0x40, 0x0b, 0x3e, 0x2e, 0x29, 0x62, 0xbd,
  0x89, 0x78, 0x03, 0xbe, 0x95, 0xc5, 0x0a, 0x3e, 0x5e, 0x5f, 0x8b, 0x3d,
  0x31, 0x9a, 0x47, 0xbd, 0x30, 0x30, 0x67, 0xbd, 0x26, 0x2f, 0xd1, 0xbd,
  0x5b, 0xa5, 0x65, 0x3f, 0x2c, 0xc2, 0xa7, 0xbd, 0xa6, 0x07, 0xe1, 0xbd,
  0xa7, 0x06, 0xcc, 0x3e, 0xe6, 0x9a, 0x92, 0x3d, 0x50, 0x6a, 0xb8, 0xbd,
  0x56, 0x35, 0x85, 0xbe, 0x6f, 0x64, 0x5f, 0x3e, 0x07, 0xf5, 0x96, 0xbe,
  0x22, 0xd2, 0x7a, 0xbd, 0x95, 0x3e, 0x8b, 0xbe, 0x7b, 0xd8, 0x70, 0xbe,
  0x39, 0xbe, 0x85, 0xbe, 0xd4, 0x09, 0x00, 0x3c, 0xbc, 0xce, 0x2c, 0xbf,
  0xf3, 0x20, 0x23, 0xbe, 0x0c, 0x32, 0xb6, 0x3e, 0x07, 0xd0, 0x1a, 0x3e,
  0x7d, 0xed, 0x8d, 0xbe, 0x63, 0xfe, 0x27, 0xbe, 0xb7, 0xa5, 0x23, 0x3d,
  0x7d, 0xed, 0x8d, 0xbe, 0x63, 0xfe, 0x27, 0xbe, 0xb7, 0xa5, 0x23, 0x3d,
  0x0f, 0x68, 0x73, 0xbe, 0x1a, 0xea, 0xb7, 0xbe, 0x01, 0x56, 0xbd, 0xbd,
  0x07, 0xae, 0x24, 0xbf, 0x72, 0xe3, 0xa2, 0xbc, 0xfa, 0x33, 0x2b, 0xbe,
  0x16, 0x72, 0x8a, 0xbe, 0x90, 0x1d, 0x4c, 0xbe, 0xcb, 0x8b, 0x24, 0x3d,
  0x7d, 0xed, 0x8d, 0xbe, 0x63, 0xfe, 0x27, 0xbe, 0xb7, 0xa5, 0x23, 0x3d,
  0x0f, 0x68, 0x73, 0xbe, 0x1a, 0xea, 0xb7, 0xbe, 0x01, 0x56, 0xbd, 0xbd,
  0x07, 0xae, 0x24, 0xbf, 0x72, 0xe3, 0xa2, 0xbc, 0xfa, 0x33, 0x2b, 0xbe,
  0x16, 0x72, 0x8a, 0xbe, 0x90, 0x1d, 0x4c, 0xbe, 0xcb, 0x8b, 0x24, 0x3d,
  0x05, 0x35, 0x01, 0xbf, 0xdf, 0xdc, 0x85, 0xbd, 0x88, 0xa0, 0x7f, 0x3e,
  0x29, 0xd8, 0x97, 0x3d, 0x6f, 0x05, 0xeb, 0xbc, 0x28, 0x98, 0x7d, 0xbe,
  0x45, 0x2c, 0x14, 0x3e, 0xe1, 0x19, 0x3a, 0xbe, 0x5c, 0xac, 0xb7, 0x3b,
  0x75, 0xf4, 0x00, 0xbe, 0xe3, 0xd2, 0x76, 0xbd, 0xc3, 0x73, 0x19, 0xbd,
  0x4e, 0xeb, 0x9f, 0xbd, 0x5c, 0x25, 0x3a, 0xbe, 0x47, 0xbc, 0x97, 0xbe,
  0x6e, 0xae, 0xa7, 0x3d, 0xe8, 0x42, 0xb0, 0xbe, 0x1b, 0x83, 0x3d, 0x39,
  0x07, 0xca, 0xe4, 0x3e, 0xd2, 0x71, 0xba, 0xbd, 0x3c, 0x50, 0x57, 0xbe,
  0x96, 0x00, 0x82, 0x3b, 0x83, 0xec, 0x48, 0xbe, 0x64, 0xeb, 0xca, 0x3d,
  0x56, 0x75, 0x7d, 0xbe, 0xf5, 0xde, 0x69, 0xbc, 0x33, 0x0e, 0xcf, 0xbe,
  0x11, 0x20, 0x58, 0xbd, 0xe7, 0x24, 0xde, 0xbd, 0x42, 0xbf, 0x34, 0x3e,
  0xf7, 0xa3, 0x0b, 0xbe, 0xb2, 0x4c, 0x51, 0x3b, 0x6f, 0x27, 0xaf, 0xbd,
  0x38, 0x81, 0xb6, 0xbd, 0x02, 0x0b, 0x6e, 0x3c, 0x5b, 0x78, 0x25, 0xbd,
  0x05, 0x35, 0x01, 0xbf, 0xdf, 0xdc, 0x85, 0xbd, 0x88, 0xa0, 0x7f, 0x3e,
  0x29, 0xd8, 0x97, 0x3d, 0x6f, 0x05, 0xeb, 0xbc, 0x28, 0x98, 0x7d, 0xbe,
  0x45, 0x2c, 0x14, 0x3e, 0xe1, 0x19, 0x3a, 0xbe, 0x5c, 0xac, 0xb7, 0x3b,
  0x75, 0xf4, 0x00, 0xbe, 0xe3, 0xd2, 0x76, 0xbd, 0xc3, 0x73, 0x19, 0xbd,
  0x4e, 0xeb, 0x9f, 0xbd, 0x5c, 0x25, 0x3a, 0xbe, 0x47, 0xbc, 0x97, 0xbe,
  0x6e, 0xae, 0xa7, 0x3d, 0xe8, 0x42, 0xb0, 0xbe, 0x1b, 0x83, 0x3d, 0x39,
  0x07, 0xca, 0xe4, 0x3e, 0xd2, 0x71, 0xba, 0xbd, 0x3c, 0x50, 0x57, 0xbe,
  0x96, 0x00, 0x82, 0x3b, 0x83, 0xec, 0x48, 0xbe, 0x64, 0xeb, 0xca, 0x3d,
  0x56, 0x75, 0x7d, 0xbe, 0xf5, 0xde, 0x69, 0xbc, 0x33, 0x0e, 0xcf, 0xbe,
  0x11, 0x20, 0x58, 0xbd, 0xe7, 0x24, 0xde, 0xbd, 0x42, 0xbf, 0x34, 0x3e,
  0xf7, 0xa3, 0x0b, 0xbe, 0xb2, 0x4c, 0x51, 0x3b, 0x6f, 0x27, 0xaf, 0xbd,
  0x38, 0x81, 0xb6, 0xbd, 0x02, 0x0b, 0x6e, 0x3c, 0x5b, 0x78, 0x25, 0xbd,
  0xa0, 0x02, 0x23, 0xbe, 0xad, 0x28, 0x05, 0xbe, 0x9f, 0x01, 0x05, 0xbe,
  0xaa, 0xb6, 0x7f, 0xbd, 0x0c, 0x8a, 0xfe, 0x3c, 0xc5, 0x50, 0x1d, 0xbd,
  0x4d, 0x17, 0x45, 0xbe, 0x41, 0x4f, 0xe6, 0xbd, 0x0f, 0xad, 0x8d, 0xbd,
  0x74, 0x71, 0x12, 0x3b, 0x61, 0x21, 0xf3, 0x3c, 0x18, 0xec, 0x96, 0x3d,
  0x54, 0xaa, 0xce, 0xbd, 0xda, 0x79, 0xaa, 0x3e, 0x05, 0x1f, 0x72, 0xbd,
  0xa1, 0x4e, 0xa6, 0x3d, 0x62, 0xc2, 0x74, 0xbd, 0xc9, 0xdb, 0x2b, 0xbd,
  0xdc, 0x88, 0xfa, 0x3d, 0xf7, 0x2f, 0x8e, 0xbe, 0xc3, 0xee, 0x4f, 0x3d,
  0x83, 0x60, 0xcd, 0x3d, 0x05, 0xc3, 0xbe, 0xba, 0xaa, 0x6b, 0xe3, 0xbc,
  0x03, 0x9c, 0x9b, 0xbd, 0x44, 0x5b, 0x2a, 0x3e, 0x18, 0x40, 0xd9, 0x3d,
  0x9f, 0x61, 0x19, 0xbe, 0x45, 0x52, 0x33, 0x3b, 0xdb, 0x3a, 0x58, 0xbd,
  0x48, 0xee, 0xe1, 0x3e, 0x83, 0x73, 0x88, 0xbe, 0x76, 0xf8, 0x8b, 0x3d,
  0x0b, 0x26, 0xa6, 0xbd, 0x1f, 0x88, 0x49, 0x3e, 0xd5, 0xd7, 0x5f, 0xbe,
  0x7f, 0x97, 0x97, 0x3e, 0xda, 0xd5, 0x2d, 0x3e, 0xeb, 0xcf, 0xb5, 0x3c,
  0x5b, 0x0f, 0xf9, 0xbc, 0xa9, 0x73, 0x31, 0xbe, 0x1c, 0xd0, 0x24, 0x3d,
  0xca, 0x83, 0x82, 0x3d, 0x1a, 0xb6, 0x70, 0xbd, 0x50, 0x32, 0xc9, 0xbc,
  0x27, 0xbd, 0x93, 0xbe, 0xd4, 0xe7, 0xb8, 0x3e, 0x0f, 0xf3, 0x9e, 0xbd,
  0x46, 0x66, 0x20, 0x3d, 0x58, 0xfc, 0x0b, 0xbe, 0x5f, 0xce, 0x11, 0x3e,
  0xdd, 0x9e, 0xeb, 0x3d, 0xfc, 0x75, 0xb9, 0xbc, 0xee, 0x8b, 0x1f, 0x3e,
  0xdc, 0x7d, 0x6c, 0x3e, 0xac, 0x82, 0xc7, 0xbb, 0x76, 0x43, 0x7f, 0xbe,
  0x2d, 0x88, 0x22, 0x3e, 0x72, 0x2a, 0xcc, 0x3d, 0x4e, 0xde, 0xf7, 0xbb,
  0xb7, 0xfc, 0x37, 0xbd, 0x41, 0x92, 0x2a, 0xbe, 0x6d, 0x12, 0x11, 0x3e,
  0x9a, 0xfa, 0x03, 0xbe, 0x16, 0x34, 0xdb, 0x3c, 0xf9, 0xa4, 0x5b, 0xbe,
  0xcd, 0xf3, 0x8a, 0x3d, 0x7e, 0xe8, 0x19, 0x3e, 0x0e, 0xec, 0x64, 0x3d,
  0xda, 0x6f, 0xf9, 0x3c, 0x29, 0xdf, 0x98, 0x3d, 0xfe, 0xd0, 0xd9, 0x3c,
  0xd1, 0xbf, 0x81, 0xbe, 0x4d, 0xbc, 0x66, 0x3e, 0x42, 0x47, 0x66, 0x3d,
  0xf5, 0xfa, 0xd1, 0x3c, 0x7c, 0x90, 0x6e, 0x3d, 0x70, 0x38, 0x8a, 0x3d,
  0x2e, 0xb8, 0xab, 0xbd, 0x7b, 0x5b, 0x28, 0xbe, 0xbc, 0x0f, 0xcb, 0xbc,
  0xf4, 0xcf, 0x20, 0x3d, 0x26, 0x9b, 0xd4, 0x3d, 0x55, 0xbe, 0x95, 0x3d,
  0x20, 0x94, 0x9d, 0x3d, 0x4b, 0xe3, 0x2b, 0x3e, 0xbe, 0x9b, 0xfc, 0x3d,
  0xc0, 0x66, 0x2d, 0x3b, 0x35, 0x36, 0x1f, 0xbe, 0xc6, 0x90, 0xce, 0x3d,
  0xb7, 0x1c, 0xac, 0x3d, 0xdb, 0x78, 0xf7, 0x3b, 0xc2, 0xd4, 0x12, 0x3e,
  0x33, 0x43, 0xe7, 0xbe, 0x71, 0xd7, 0xab, 0xbd, 0x78, 0x2a, 0xb9, 0xbd,
  0xa6, 0x5b, 0xfa, 0xbc, 0x5d, 0x34, 0xe2, 0xbd, 0x53, 0xa7, 0x09, 0x3e,
  0x77, 0xee, 0x12, 0xbd, 0x48, 0x20, 0x94, 0x3d, 0x8e, 0x98, 0x6f, 0x3d,
  0x55, 0x8c, 0x98, 0x3d, 0x25, 0x96, 0x1d, 0xbb, 0x68, 0xeb, 0xaf, 0xbd,
  0xdd, 0x6b, 0x29, 0x3e, 0x5a, 0xbf, 0x2e, 0x3c, 0x0d, 0x33, 0x89, 0xbc,
  0xc2, 0x06, 0x41, 0xbd, 0x76, 0x46, 0xd3, 0xbe, 0x5a, 0x44, 0x2d, 0xbe,
  0xb6, 0x2c, 0x1a, 0xbd, 0xc1, 0xeb, 0xb4, 0xbe, 0x12, 0x17, 0x3f, 0xbc,
  0x3b, 0x84, 0x20, 0xbc, 0xa7, 0xb4, 0x97, 0xbe, 0xb1, 0xe0, 0x9f, 0x3c,
  0x96, 0xd8, 0xf8, 0xbc, 0xe0, 0x49, 0x87, 0x3d, 0x01, 0x7c, 0x85, 0x3d,
  0xeb, 0xac, 0xfa, 0xbd, 0xed, 0x6f, 0xc4, 0x3d, 0x24, 0xb7, 0xde, 0xbe,
  0x54, 0xa8, 0x42, 0xbe, 0x2a, 0x1b, 0x60, 0x3e, 0x74, 0x98, 0x78, 0x3e,
  0x38, 0xa9, 0x8e, 0xbe, 0xca, 0xfa, 0xf5, 0x3e, 0x2e, 0x4e, 0x84, 0xbe,
  0x5b, 0x7c, 0x08, 0xbe, 0xf2, 0x17, 0x2e, 0xbe, 0xa8, 0xda, 0xd4, 0x3e,
  0xfc, 0xa0, 0xeb, 0x3d, 0x6d, 0x26, 0xb0, 0xbe, 0xf7, 0xe5, 0xb1, 0xbe,
  0xeb, 0x8a, 0x9a, 0xbd, 0xc5, 0xb1, 0xa2, 0x3e, 0x00, 0x9a, 0x74, 0xbe,
  0xdd, 0xb9, 0x52, 0xbe, 0xf9, 0x06, 0xf2, 0x3d, 0x89, 0xbe, 0x83, 0x3d,
  0x8a, 0xf4, 0x57, 0x3d, 0x0d, 0x69, 0x8e, 0x3d, 0xbb, 0x05, 0xd0, 0x3e,
  0x7b, 0x1d, 0xa5, 0xbd, 0x9c, 0x4f, 0x44, 0xbe, 0xc7, 0x9c, 0x97, 0xbd,
  0xc6, 0x34, 0x97, 0x3d, 0x2e, 0x9c, 0xc2, 0xbe, 0x91, 0xad, 0xc8, 0xbe,
  0x31, 0x58, 0x96, 0xbd, 0xfd, 0x3b, 0x6f, 0x3d, 0x18, 0x1a, 0x4f, 0x3d,
  0x23, 0xe1, 0xc3, 0x3d, 0xfb, 0xbc, 0x84, 0xbe, 0x66, 0xfe, 0x2b, 0x3e,
  0xdd, 0x8d, 0x85, 0x3d, 0x47, 0x33, 0x55, 0xbe, 0x3a, 0xed, 0x7d, 0x3e,
  0x37, 0x84, 0x67, 0x3e, 0xbd, 0x6a, 0xba, 0xbd, 0x7f, 0xab, 0xe8, 0x3e,
  0x99, 0xbe, 0x28, 0xbe, 0x93, 0x43, 0x4e, 0x3d, 0x41, 0x5d, 0x38, 0x3e,
  0xe7, 0xbc, 0x8e, 0xbe, 0x40, 0x74, 0x21, 0xbe, 0x1c, 0xe9, 0x27, 0x3e,
  0x26, 0xec, 0xee, 0x3d, 0x03, 0x69, 0x70, 0xbe, 0xfa, 0xe5, 0x8f, 0xbe,
  0xcc, 0xdd, 0x1a, 0x3d, 0xb3, 0x1c, 0x85, 0xbe, 0x08, 0x7a, 0x80, 0xbe,
  0xeb, 0x6e, 0xca, 0x3d, 0xb8, 0x03, 0xc4, 0x3e, 0xdd, 0x26, 0x37, 0xbd,
  0x1c, 0xec, 0x08, 0x3f, 0x8e, 0xb0, 0x23, 0xbe, 0xdf, 0xcf, 0x39, 0x3e,
  0xe1, 0x3e, 0x4d, 0xbe, 0x83, 0x55, 0x43, 0xbe, 0xcd, 0xbe, 0x0f, 0xbe,
  0xab, 0xe2, 0x11, 0x3e, 0xba, 0x81, 0x25, 0x3e, 0x64, 0x7e, 0x2e, 0xbe,
  0xf3, 0xd8, 0x0f, 0xbe, 0x2f, 0x3b, 0xe8, 0x3c, 0xd5, 0x7a, 0x24, 0x3e,
  0x83, 0x96, 0xfd, 0xbd, 0x0f, 0xb9, 0xad, 0x3e, 0x0a, 0x98, 0x63, 0x3e,
  0x90, 0xb9, 0xa2, 0x3b, 0x78, 0x08, 0xbe, 0x3d, 0x12, 0xe1, 0x46, 0xbe,
  0x2c, 0x9f, 0x0c, 0x3e, 0x5c, 0xef, 0x4c, 0x3e, 0xce, 0x9e, 0x1e, 0xbe,
  0xbe, 0xd2, 0xb7, 0xbd, 0x73, 0xc4, 0xa4, 0x3d, 0xac, 0xf2, 0x04, 0x3e,
  0x8d, 0x80, 0x9b, 0xbe, 0xe7, 0x56, 0xcf, 0xbd, 0xd0, 0xad, 0x24, 0xbe,
  0x28, 0x8e, 0xb3, 0x3e, 0x0d, 0xbf, 0x60, 0xbe, 0x8b, 0xd0, 0xce, 0x3d,
  0xb8, 0x95, 0xb1, 0x3e, 0x93, 0x73, 0x08, 0xbe, 0x53, 0xc9, 0x80, 0xbe,
  0x7a, 0x6b, 0x7a, 0xbe, 0x52, 0x21, 0xcc, 0xbc, 0x99, 0xeb, 0xa8, 0x3e,
  0x8e, 0x9d, 0x95, 0xbe, 0x2b, 0x03, 0xe8, 0xbc, 0xa2, 0x67, 0x7e, 0x3d,
  0x81, 0xfe, 0x25, 0x3e, 0x62, 0x5d, 0x87, 0xbd, 0x31, 0xee, 0x4a, 0xbc,
  0xc9, 0x71, 0x03, 0x3d, 0xec, 0xc0, 0x84, 0x3d, 0x13, 0xfb, 0x0b, 0xbe,
  0xb2, 0xea, 0x56, 0xbe, 0xe2, 0x86, 0x52, 0x3e, 0x1c, 0x47, 0x93, 0xbd,
  0x52, 0x52, 0x6b, 0xbb, 0x14, 0xd3, 0xb6, 0xbc, 0xb3, 0xe9, 0xe1, 0xbd,
  0x09, 0xc0, 0x49, 0x3e, 0xac, 0x5f, 0xab, 0x3d, 0xa7, 0xa6, 0xd5, 0x3d,
  0x67, 0x1f, 0xf5, 0xbd, 0x0d, 0x0c, 0xf4, 0xbc, 0x46, 0x4e, 0x92, 0xbc,
  0xb4, 0x24, 0xec, 0xbe, 0x6f, 0x77, 0x17, 0xbe, 0x7e, 0x36, 0xfd, 0x3a,
  0xbf, 0xae, 0x26, 0xbe, 0xec, 0x49, 0xc9, 0x3e, 0xeb, 0x39, 0x52, 0x3e,
  0x36, 0x01, 0xd9, 0x3c, 0x20, 0x64, 0x08, 0x3d, 0xd0, 0xbd, 0x4e, 0x3e,
  0xa6, 0x6c, 0x86, 0x3e, 0x6a, 0x32, 0xb8, 0xba, 0xb8, 0x82, 0x88, 0xbd,
  0x67, 0xef, 0x4a, 0x3e, 0x2b, 0xb2, 0x6b, 0xbe, 0x73, 0x67, 0x9d, 0xbe,
  0x7d, 0xfc, 0x4d, 0xbe, 0x91, 0x1b, 0x2b, 0xbe, 0x7f, 0x11, 0xfd, 0xbd,
  0x5c, 0xf4, 0xc7, 0xbd, 0x43, 0x0d, 0x88, 0x3e, 0xe4, 0xb0, 0x23, 0x3f,
  0xda, 0x5f, 0x8b, 0x3e, 0x8c, 0xe3, 0xa7, 0x3e, 0xf3, 0x07, 0xbd, 0x3e,
  0xae, 0x44, 0xeb, 0x3e, 0xe9, 0x92, 0xcd, 0xbd, 0x51, 0x71, 0x04, 0x3e,
  0x4b, 0x51, 0x66, 0xbe, 0x2b, 0x51, 0xe3, 0xbc, 0xf7, 0x67, 0xdc, 0xbe,
  0xdb, 0x5f, 0x83, 0xbe, 0x18, 0x8a, 0x6b, 0xbe, 0x3b, 0x5c, 0x28, 0xbe,
  0x0a, 0x55, 0xd0, 0xbd, 0x02, 0x53, 0x80, 0x3b, 0x20, 0xfc, 0x00, 0xbe,
  0x1a, 0xc4, 0x58, 0x3f, 0xd5, 0x17, 0x88, 0x3e, 0x70, 0xf2, 0x15, 0x3d,
  0xce, 0x04, 0xbd, 0x3e, 0x61, 0xb5, 0xb0, 0x3e, 0x34, 0xa2, 0x98, 0xbd,
  0x59, 0x0e, 0xf2, 0xba, 0x6f, 0x19, 0x30, 0x3d, 0xb5, 0xfa, 0x3a, 0xbe,
  0xb7, 0x27, 0x9f, 0xbe, 0xaa, 0x96, 0xcc, 0xbe, 0xa2, 0xf6, 0x0a, 0xbe,
  0xdd, 0x9d, 0xa4, 0xbe, 0x6a, 0x14, 0xd7, 0xbd, 0x88, 0x02, 0xa1, 0x3e,
  0x4c, 0xdf, 0x4c, 0x3d, 0x49, 0xe8, 0x2d, 0x3f, 0xd6, 0xc9, 0xcf, 0x3e,
  0x91, 0xa6, 0x33, 0x3e, 0xca, 0x00, 0x72, 0x3e, 0x67, 0x9e, 0xdf, 0xbb,
  0xd0, 0xd1, 0x22, 0x3d, 0x53, 0xfa, 0x28, 0xbc, 0x44, 0xcb, 0xd4, 0x3d,
  0xac, 0xa2, 0x12, 0xbe, 0x74, 0x78, 0xe6, 0xbe, 0x77, 0xa8, 0xbe, 0xbe,
  0x73, 0x29, 0x8e, 0x3d, 0xf8, 0x5f, 0x9c, 0xbe, 0x46, 0x32, 0xa7, 0xbd,
  0xbb, 0x16, 0x08, 0x3e, 0x2b, 0x10, 0x26, 0x3d, 0xd7, 0x60, 0x20, 0x3f,
  0x87, 0xd2, 0x7b, 0x3e, 0x76, 0x2a, 0x85, 0x3e, 0xb2, 0xed, 0x40, 0x3e,
  0xd4, 0x33, 0x80, 0x3d, 0x09, 0x6b, 0x32, 0x3e, 0x8a, 0x9e, 0x41, 0x3e,
  0x08, 0x2b, 0x14, 0x3e, 0x32, 0xce, 0xcc, 0x3d, 0x5e, 0x4d, 0xac, 0xbe,
  0x51, 0xb4, 0xf6, 0xbd, 0x04, 0x58, 0x87, 0xbd, 0x2c, 0x8e, 0xac, 0x3c,
  0x14, 0xe5, 0x82, 0xbe, 0xb4, 0xb6, 0x1c, 0xbe, 0x18, 0x44, 0x34, 0xbe,
  0xa2, 0x8b, 0x94, 0x3e, 0xc0, 0x58, 0xff, 0x3e, 0xde, 0x49, 0xfa, 0xbd,
  0xad, 0x9c, 0x93, 0x3d, 0x72, 0x0e, 0x78, 0x3d, 0x7c, 0x58, 0x58, 0xbe,
  0xfc, 0x4c, 0x7b, 0x3e, 0x81, 0xa0, 0x8e, 0xbc, 0x23, 0xce, 0x22, 0x3e,
  0xc3, 0x3c, 0x0f, 0xbe, 0x71, 0x5f, 0x41, 0x3d, 0xb3, 0x63, 0x05, 0x3e,
  0x8f, 0x20, 0x7a, 0xbe, 0x8b, 0x49, 0xb6, 0xbd, 0x0e, 0xc1, 0x55, 0xbe,
  0x8a, 0x37, 0xb8, 0xbe, 0x79, 0x32, 0x90, 0x3e, 0x0f, 0x10, 0x20, 0xbe,
  0xf9, 0xaf, 0x17, 0x3a, 0x41, 0x1a, 0xc7, 0x3c, 0x6e, 0x1d, 0x67, 0xbd,
  0x90, 0x84, 0xac, 0xbe, 0xeb, 0x87, 0x97, 0xbe, 0xb0, 0xf8, 0x59, 0x3c,
  0x75, 0x48, 0xb1, 0x3e, 0x24, 0xb3, 0x13, 0xbe, 0x57, 0xb5, 0x72, 0xbe,
  0x93, 0x77, 0xa4, 0xbe, 0xb1, 0x81, 0x01, 0x3e, 0xe3, 0x84, 0x68, 0xbe,
  0xb4, 0x09, 0x7c, 0x3c, 0x06, 0x32, 0x91, 0x3d, 0x04, 0x42, 0xdd, 0x3d,
  0x10, 0x39, 0xfd, 0xbd, 0x7c, 0x79, 0x77, 0xbd, 0x25, 0x8d, 0xfd, 0xbc,
  0x8d, 0xb2, 0x22, 0xbe, 0x66, 0xe9, 0x8d, 0xbc, 0x17, 0x5b, 0x43, 0x3e,
  0xbb, 0x04, 0xb9, 0xbe, 0xab, 0x33, 0x2c, 0x3e, 0xe5, 0xe4, 0xd5, 0xbc,
  0xba, 0x99, 0x15, 0x3d, 0x92, 0xb8, 0x95, 0x3d, 0x15, 0xa8, 0xc1, 0x3d,
  0xab, 0xca, 0x82, 0x3d, 0x25, 0x10, 0x49, 0xbd, 0x03, 0xd0, 0xb1, 0x3c,
  0xfd, 0x86, 0x4b, 0x3d, 0x44, 0xca, 0x33, 0x3d, 0x23, 0x67, 0xc0, 0xbd,
  0xa8, 0xaf, 0xa7, 0x3e, 0x51, 0x6f, 0x7d, 0xbd, 0x32, 0xef, 0x53, 0xbc,
  0xde, 0xb7, 0xff, 0xbc, 0x91, 0x54, 0x1c, 0x3e, 0x7f, 0x0c, 0x0a, 0x3e,
  0xf3, 0xc2, 0x8c, 0xbd, 0x93, 0xab, 0x3a, 0xbe, 0xb3, 0xf7, 0x1b, 0x3d,
  0xc5, 0x44, 0x84, 0xbd, 0x8c, 0xf5, 0x2b, 0x3e, 0x0f, 0x35, 0x2c, 0xbc,
  0x6a, 0x93, 0x33, 0xbc, 0x0b, 0x84, 0xca, 0x3d, 0x3c, 0xfc, 0x2b, 0x3d,
  0x1e, 0x19, 0x91, 0xbe, 0x4c, 0xe4, 0x4a, 0x3e, 0xa9, 0x02, 0x2c, 0xbe,
  0xea, 0x10, 0x81, 0xbc, 0xa3, 0x47, 0x3c, 0xbe, 0xde, 0xfa, 0xb1, 0xbe,
  0x88, 0xfe, 0x68, 0xbe, 0xc8, 0x2d, 0xc2, 0xbd, 0x72, 0x3b, 0xd0, 0xbd,
  0xcb, 0xf7, 0xc9, 0xbe, 0x12, 0xd0, 0x04, 0xbf, 0x37, 0x6a, 0x62, 0xbc,
  0x5b, 0x74, 0x4a, 0xbd, 0x2f, 0x4c, 0xf3, 0xbc, 0xb8, 0x98, 0x85, 0x3e,
  0xe8, 0x8a, 0x14, 0xbe, 0xbd, 0xab, 0xe0, 0xbd, 0xd7, 0xe5, 0x48, 0xbd,
  0xdf, 0x7c, 0x6e, 0xbe, 0xf1, 0xb5, 0x02, 0xbc, 0x0f, 0xe0, 0x8f, 0xbd,
  0x07, 0x0c, 0x16, 0xbe, 0x84, 0xd6, 0xc1, 0xbe, 0x60, 0x9f, 0xa7, 0xbd,
  0x61, 0x77, 0x39, 0xbe, 0xd1, 0x8a, 0xe0, 0xbe, 0xd6, 0xba, 0xbc, 0xbe,
  0x3e, 0x7e, 0x1e, 0x3d, 0x2f, 0x8d, 0x5c, 0x3d, 0x14, 0x92, 0xdb, 0xbd,
  0xe7, 0xfd, 0xd6, 0x3e, 0x3e, 0x79, 0x50, 0xbe, 0x4a, 0x36, 0x7d, 0x3e,
  0xf1, 0xde, 0xbb, 0xbc, 0xfb, 0x21, 0x10, 0xbc, 0x1a, 0x02, 0x2a, 0xbd,
  0xa5, 0x6a, 0xa8, 0x3e, 0xc4, 0x6e, 0xfe, 0x3d, 0x67, 0x0d, 0x9d, 0xbd,
  0x0b, 0x44, 0x76, 0xbd, 0x95, 0x05, 0xca, 0xbd, 0xfc, 0x98, 0x62, 0xbd,
  0xc9, 0xcf, 0xf4, 0xbc, 0xa8, 0x06, 0x85, 0xbd, 0x04, 0x98, 0xd9, 0x3d,
  0xdf, 0x2a, 0x0a, 0xbe, 0x6f, 0x3f, 0xa1, 0x3d, 0xd6, 0xb3, 0xbc, 0xbe,
  0x31, 0x73, 0x3d, 0x3e, 0x37, 0x91, 0xd2, 0xbe, 0x56, 0xc6, 0xbf, 0x3d,
  0xb6, 0xb7, 0x0b, 0xbe, 0xf4, 0x86, 0x91, 0x3e, 0x5b, 0x9a, 0xa5, 0x3d,
  0x1d, 0xb3, 0x29, 0x3e, 0x68, 0x65, 0x75, 0x3c, 0x86, 0xdf, 0xbe, 0xbc,
  0xc2, 0x74, 0xa2, 0x3c, 0x87, 0xbc, 0xab, 0x3c, 0xbd, 0xd6, 0x2b, 0xbc,
  0x2e, 0x6e, 0x25, 0xbc, 0xa1, 0x0c, 0x47, 0x3b, 0xe5, 0x01, 0x7f, 0x3d,
  0xa5, 0x63, 0x8a, 0xbd, 0xa2, 0xb4, 0x8a, 0x3e, 0xec, 0x6f, 0x26, 0xbe,
  0xfc, 0xb4, 0x50, 0x3e, 0x21, 0xd1, 0x00, 0x3c, 0xd0, 0x16, 0xa0, 0xbc,
  0x25, 0x08, 0x46, 0xbc, 0xba, 0x5d, 0x0f, 0x3e, 0xa9, 0x8e, 0xf7, 0x3d,
  0xf2, 0x94, 0x35, 0x3c, 0x9a, 0xd0, 0xf3, 0xbc, 0x48, 0x08, 0x1e, 0xbf,
  0xe4, 0x5e, 0x5f, 0xbd, 0xf3, 0x0b, 0xcd, 0xbe, 0x5f, 0xdd, 0xca, 0xbd,
  0x22, 0x5b, 0x98, 0x3d, 0x2d, 0x16, 0x65, 0xbe, 0x22, 0xef, 0x98, 0xbc,
  0xc2, 0x29, 0x46, 0xbf, 0xdd, 0x43, 0x2d, 0x3e, 0x6a, 0xdb, 0xed, 0xbd,
  0x5a, 0x7a, 0xdc, 0xbb, 0xda, 0x16, 0xb0, 0xbe, 0xe8, 0x91, 0xab, 0x3d,
  0x12, 0xc8, 0x06, 0xbf, 0x78, 0x22, 0xeb, 0xbe, 0x05, 0xad, 0xcc, 0x3d,
  0xb7, 0x47, 0x13, 0x3e, 0x57, 0xeb, 0xb9, 0xbb, 0x30, 0x8f, 0x03, 0xbd,
  0x0f, 0xa2, 0x54, 0xbe, 0x89, 0xf3, 0x4b, 0x3e, 0x22, 0x56, 0xc9, 0x3c,
  0x8a, 0x0c, 0x42, 0xbe, 0x2c, 0x80, 0x50, 0x3d, 0xa9, 0x5e, 0xc8, 0x3e,
  0xaf, 0x3f, 0x06, 0xbe, 0x67, 0x1a, 0x4e, 0xbe, 0xdc, 0x1e, 0xb2, 0x3c,
  0xb3, 0x56, 0x2e, 0xbe, 0x55, 0xc3, 0x37, 0xbf, 0xd4, 0x2d, 0x8b, 0xbe,
  0xda, 0xa9, 0xe1, 0x3d, 0x09, 0x14, 0xac, 0xbe, 0xc9, 0x5c, 0x5b, 0x3d,
  0xe5, 0x2f, 0x5b, 0xbe, 0x8a, 0x38, 0x8e, 0xbe, 0x5b, 0xc4, 0x38, 0x3d,
  0xa9, 0xfc, 0x55, 0xbe, 0xa8, 0x43, 0x8a, 0x3c, 0xe5, 0xa1, 0x86, 0xbd,
  0xf1, 0x82, 0x3f, 0x3e, 0x9e, 0x56, 0x09, 0xbe, 0x89, 0x3d, 0x00, 0xbe,
  0xe1, 0x7c, 0x3c, 0xbc, 0xea, 0xa5, 0x0e, 0xbd, 0x4c, 0x1c, 0x1b, 0xbf,
  0x08, 0xf3, 0xfc, 0xbd, 0x69, 0x44, 0x23, 0xbe, 0xc7, 0x60, 0x54, 0xbd,
  0xcf, 0x6c, 0x1d, 0xbe, 0x9c, 0xaa, 0xfa, 0xbd, 0x4a, 0x62, 0xc7, 0xbe,
  0x37, 0xde, 0xf3, 0xba, 0x45, 0x05, 0x06, 0x3e, 0xee, 0xde, 0x2f, 0x3e,
  0xfa, 0x45, 0x09, 0x3e, 0xb7, 0x8a, 0x01, 0xbe, 0x00, 0x31, 0xd2, 0xbd,
  0x1f, 0x7f, 0xbf, 0xbc, 0x6f, 0xd1, 0x6a, 0x3d, 0xd5, 0x3c, 0x4d, 0x3e,
  0x70, 0x31, 0xe9, 0xbe, 0x2c, 0x95, 0x1f, 0xbe, 0xd8, 0x1b, 0xe6, 0xbd,
  0x58, 0x8c, 0x52, 0xbe, 0x5c, 0xd9, 0xc9, 0xbd, 0xe6, 0x93, 0xea, 0xbe,
  0x26, 0x14, 0x78, 0xbe, 0x53, 0x51, 0x94, 0x3d, 0xce, 0x5a, 0xc6, 0x3e,
  0xef, 0x25, 0x83, 0x3e, 0x89, 0xc2, 0xd0, 0x3d, 0x16, 0x10, 0xc0, 0x3d,
  0xeb, 0xda, 0x9d, 0x3d, 0xd4, 0x31, 0xa5, 0x3d, 0xb8, 0x18, 0xef, 0x3d,
  0xe0, 0x35, 0x59, 0x3e, 0xb3, 0x6a, 0x0c, 0xbe, 0xe5, 0x53, 0xeb, 0xbd,
  0xd3, 0x41, 0x51, 0xbd, 0xd6, 0xbf, 0x0b, 0xbe, 0x17, 0x7b, 0xd6, 0xbd,
  0x5a, 0x46, 0x74, 0xbe, 0xe2, 0x74, 0x72, 0x3d, 0xe3, 0x05, 0x6e, 0xbd,
  0xc9, 0x7f, 0xa6, 0xbc, 0xb8, 0x98, 0xf9, 0x3d, 0xfb, 0x25, 0xdd, 0xbb,
  0xab, 0xe1, 0x29, 0x3e, 0xe1, 0xf5, 0xaf, 0x3d, 0x1b, 0x08, 0x98, 0xbe,
  0x56, 0x4c, 0x5c, 0x3e, 0x8b, 0x44, 0x46, 0xbc, 0xcc, 0xed, 0x22, 0x3e,
  0xcb, 0x01, 0x43, 0xbd, 0xa5, 0xac, 0x53, 0xbe, 0xf7, 0xbf, 0x72, 0xbc,
  0xdb, 0xc0, 0xea, 0x3c, 0xe0, 0x96, 0xb8, 0xbe, 0x1f, 0x62, 0x41, 0x3e,
  0xc4, 0x7d, 0x36, 0xb9, 0x75, 0x38, 0x57, 0xbe, 0x09, 0x99, 0x56, 0x3e,
  0x24, 0x81, 0xb7, 0xbd, 0x67, 0xb5, 0xfd, 0xbb, 0x68, 0x70, 0xa7, 0x3d,
  0x94, 0xda, 0x41, 0xbd, 0xef, 0xd7, 0x3b, 0x3c, 0x80, 0x3e, 0x5d, 0xbe,
  0x67, 0x01, 0x04, 0xbd, 0x2b, 0xa7, 0x96, 0x3d, 0xaf, 0x42, 0x11, 0xbe,
  0xcd, 0x61, 0x97, 0x3c, 0xe0, 0xe6, 0x47, 0xbe, 0x0e, 0x64, 0x81, 0xbe,
  0x33, 0xa2, 0xc9, 0xbe, 0xa7, 0xfa, 0x99, 0x3f, 0x4e, 0x1d, 0xb8, 0xbd,
  0x7a, 0x21, 0xb8, 0x3e, 0xcd, 0x21, 0x18, 0x3e, 0xc3, 0x54, 0x4c, 0xbd,
  0xbc, 0x1b, 0x55, 0xbe, 0x9a, 0x15, 0xa9, 0xbe, 0xae, 0x8b, 0x6b, 0x3d,
  0x6a, 0x65, 0xef, 0x3d, 0xe1, 0x0d, 0x73, 0x3d, 0x23, 0x9b, 0x0e, 0xbe,
  0x89, 0xc8, 0x92, 0xbe, 0x03, 0x0e, 0xa4, 0xbe, 0x30, 0x8b, 0x84, 0xbd,
  0x27, 0x74, 0x87, 0xbe, 0xba, 0x64, 0x8c, 0xba, 0x79, 0x34, 0xd0, 0x3e,
  0x19, 0x52, 0x2e, 0x3e, 0xc0, 0x2c, 0x55, 0x3e, 0x90, 0xd7, 0x84, 0x3e,
  0x7f, 0xe3, 0x33, 0xbe, 0x83, 0x75, 0x4e, 0x3e, 0xef, 0x59, 0x01, 0x3e,
  0x3c, 0x57, 0xc2, 0x3d, 0x60, 0x28, 0x38, 0xbe, 0x9d, 0xda, 0xe9, 0x3d,
  0x98, 0x7d, 0x68, 0xbd, 0xfa, 0x5e, 0xdf, 0xbd, 0xa4, 0xcc, 0xa5, 0xbe,
  0x16, 0x4b, 0xde, 0xbc, 0x09, 0x9f, 0x7b, 0xbe, 0xe4, 0xb0, 0x8f, 0x3d,
  0x59, 0x95, 0x02, 0xbc, 0x2e, 0x14, 0x86, 0x3e, 0x72, 0xb0, 0xfe, 0xbc,
  0x87, 0x7f, 0xa4, 0x3e, 0x52, 0xf8, 0x87, 0xbd, 0xac, 0x7f, 0x5b, 0xbe,
  0xc4, 0x0c, 0x69, 0xba, 0x04, 0x5b, 0x87, 0x3d, 0xa2, 0x80, 0x36, 0xbe,
  0x43, 0x77, 0x49, 0xbd, 0x86, 0x46, 0x17, 0x3c, 0x88, 0x97, 0xb0, 0xbe,
  0x3f, 0x0b, 0xb0, 0xbe, 0x25, 0x76, 0x05, 0xbe, 0xc4, 0x4f, 0x4a, 0x3d,
  0x15, 0x62, 0xc2, 0x3d, 0x2f, 0xbc, 0x1e, 0xbd, 0xcf, 0xab, 0x85, 0x3d,
  0x3c, 0x48, 0x96, 0x3d, 0x7f, 0xf1, 0x88, 0x3e, 0x3a, 0x06, 0xa5, 0xbd,
  0x5d, 0x0b, 0xab, 0xbe, 0xf0, 0xac, 0xc2, 0x3d, 0x75, 0x7c, 0xbe, 0x3d,
  0x3b, 0xd0, 0x70, 0xbd, 0xa0, 0x57, 0x87, 0xbd, 0x93, 0x1e, 0x4f, 0xbd,
  0x8e, 0x60, 0x5a, 0xbd, 0xed, 0xf4, 0x06, 0xbe, 0x04, 0xc8, 0x21, 0xbe,
  0x84, 0x18, 0x04, 0xbe, 0xc9, 0xb7, 0x01, 0x3d, 0x32, 0x84, 0x05, 0x3e,
  0xd0, 0xdb, 0x94, 0x3e, 0x73, 0x68, 0x0d, 0x3e, 0x91, 0xe2, 0x4e, 0xbd,
  0x83, 0xb2, 0x7f, 0xbd, 0x90, 0xb8, 0x90, 0xbe, 0x6d, 0x65, 0xca, 0x3d,
  0xa8, 0xf7, 0x66, 0x3d, 0x31, 0x9b, 0xf0, 0xbc, 0x92, 0x2a, 0xa5, 0xbd,
  0xa8, 0x6e, 0x9c, 0xbc, 0x29, 0xf3, 0x91, 0xbd, 0x3e, 0x03, 0xa4, 0xbe,
  0x72, 0x72, 0xc9, 0xbd, 0x4e, 0xee, 0x89, 0xbe, 0x56, 0xf8, 0x46, 0x3d,
  0xe5, 0xa9, 0xbc, 0x3d, 0x19, 0x85, 0x89, 0x3e, 0x11, 0x54, 0xe0, 0x3d,
  0x4f, 0xdb, 0x10, 0xbe, 0xf3, 0xfd, 0x24, 0xbd, 0x21, 0x54, 0x8b, 0xbe,
  0x68, 0x2a, 0xaa, 0xbd, 0xe7, 0x69, 0xd9, 0x3d, 0xc4, 0x06, 0x78, 0xbc,
  0x44, 0x27, 0xe9, 0xb9, 0xac, 0x91, 0x2a, 0x3b, 0x0a, 0x05, 0x84, 0xbe,
  0xf3, 0x10, 0x06, 0x3c, 0xb1, 0xf6, 0xf8, 0xbc, 0xf1, 0x6e, 0xef, 0xbe,
  0x0a, 0x44, 0x47, 0x3e, 0x82, 0xa8, 0xb6, 0x3d, 0xed, 0x6b, 0xaf, 0x3d,
  0x02, 0xdb, 0x3d, 0x3e, 0x78, 0x74, 0x15, 0xbe, 0xc1, 0xac, 0xd5, 0xbd,
  0x7f, 0x72, 0x7c, 0x3d, 0xa9, 0xa4, 0xf9, 0xbc, 0x6f, 0xbf, 0x85, 0x3d,
  0x6e, 0x43, 0x9f, 0xbe, 0xad, 0xe2, 0x8a, 0xbd, 0xb3, 0xde, 0xb2, 0x3d,
  0xb1, 0x53, 0xd6, 0xbd, 0x0b, 0x94, 0xc0, 0xbd, 0x28, 0x6f, 0x4e, 0xbe,
  0x65, 0x03, 0x01, 0xbd, 0x3f, 0xd7, 0x52, 0xbe, 0xe4, 0x7d, 0x1b, 0x3f,
  0x2f, 0x51, 0xf9, 0xbd, 0xf0, 0x73, 0x67, 0x3e, 0x57, 0x11, 0x39, 0x3e,
  0x57, 0x9b, 0x1f, 0x3d, 0x63, 0x56, 0xaa, 0x3e, 0x85, 0x70, 0xef, 0x3d,
  0x4a, 0xb2, 0x2d, 0x3e, 0x82, 0x96, 0xb3, 0x3d, 0xb8, 0x85, 0x42, 0x3e,
  0x7c, 0x0a, 0xc0, 0xbc, 0x7a, 0x1a, 0xb1, 0xbd, 0xed, 0xa9, 0x72, 0xba,
  0x00, 0xc3, 0xc5, 0xbd, 0x39, 0xac, 0x33, 0xbe, 0xb0, 0x57, 0x55, 0xbd,
  0x8d, 0x01, 0x17, 0x3f, 0xdb, 0xa4, 0x17, 0xbe, 0x20, 0x37, 0xb3, 0x3e,
  0x76, 0xc4, 0x63, 0x3e, 0xeb, 0x47, 0x15, 0xbe, 0x2a, 0x89, 0x83, 0x3c,
  0x9a, 0xb6, 0x7c, 0x3e, 0x0d, 0x00, 0x1b, 0x3e, 0x9f, 0x52, 0x06, 0x3e,
  0x90, 0x4c, 0x45, 0x3e, 0xf2, 0xd2, 0x05, 0xbc, 0x6f, 0xbb, 0x20, 0x3e,
  0xac, 0x42, 0xc2, 0x3c, 0xb0, 0x9d, 0xb2, 0x3d, 0xef, 0x42, 0x94, 0x3d,
  0x15, 0x2c, 0x5a, 0x3d, 0x83, 0xf7, 0x35, 0x3e, 0xbc, 0xab, 0x73, 0xbd,
  0x66, 0xbd, 0xe4, 0x3c, 0xd2, 0x52, 0xbd, 0x3d, 0xa8, 0x5f, 0xaa, 0xbd,
  0x01, 0x76, 0xec, 0xbd, 0x66, 0xee, 0x0e, 0x3d, 0xda, 0x98, 0x32, 0x3e,
  0xea, 0x8f, 0xe2, 0x3a, 0xc0, 0x49, 0xeb, 0x3b, 0x07, 0x13, 0x1e, 0x3d,
  0x65, 0xfd, 0x1d, 0xbf, 0x71, 0x66, 0xc3, 0xbe, 0x4c, 0x0a, 0xf0, 0x3b,
  0xdf, 0xb1, 0x03, 0x3e, 0x57, 0x35, 0x12, 0x3d, 0xcf, 0xea, 0x99, 0xbe,
  0xd5, 0x93, 0x04, 0x3e, 0x46, 0x85, 0x83, 0xbe, 0x15, 0x05, 0xe4, 0xbe,
  0x2f, 0x23, 0x45, 0xbe, 0x94, 0xfa, 0xa5, 0xbd, 0x53, 0x81, 0x5b, 0xbd,
  0xbb, 0xb6, 0xc3, 0xbd, 0x5e, 0x34, 0x02, 0xbf, 0xdd, 0x71, 0xf1, 0xbd,
  0x4a, 0xc7, 0x2b, 0xbc, 0x37, 0xfc, 0xff, 0xbe, 0xbc, 0xa8, 0xe7, 0xbe,
  0x51, 0x78, 0x34, 0xbd, 0x69, 0xb2, 0x1d, 0xbe, 0x76, 0x18, 0x6a, 0x3d,
  0xa8, 0x3b, 0x9a, 0xbe, 0x0d, 0x77, 0x1e, 0xbd, 0x8f, 0x1b, 0xa0, 0xbe,
  0x4e, 0x83, 0x71, 0xbe, 0x2b, 0xc3, 0x3f, 0x3d, 0x81, 0x67, 0x52, 0xbd,
  0xf7, 0x1f, 0x89, 0xbe, 0x00, 0xa0, 0x1f, 0xbe, 0x36, 0xa6, 0x16, 0xbf,
  0x8a, 0xea, 0xd1, 0xbd, 0x1c, 0x7e, 0x46, 0xbb, 0x6c, 0x79, 0x98, 0xbe,
  0xa9, 0xd4, 0xed, 0xbe, 0xd7, 0x41, 0x6e, 0x3d, 0x38, 0x5d, 0x27, 0xbe,
  0xf8, 0xfd, 0x15, 0x3d, 0xc6, 0xdc, 0xc8, 0xbe, 0xb1, 0x96, 0x18, 0x3d,
  0x4b, 0x55, 0xe7, 0xbe, 0x45, 0xd9, 0x30, 0xbe, 0xe7, 0x76, 0x26, 0x3d,
  0x1f, 0x83, 0x30, 0xbe, 0xd9, 0x5a, 0x6b, 0xbd, 0x52, 0x77, 0x7a, 0xbe,
  0xbb, 0xd4, 0xd5, 0xbe, 0x6a, 0x4a, 0x34, 0xbe, 0xab, 0xef, 0x35, 0xbd,
  0x2f, 0x88, 0x3e, 0xbe, 0x0f, 0x47, 0x47, 0xbd, 0x5a, 0x6d, 0x75, 0xbd,
  0x89, 0xff, 0xc1, 0xbd, 0xc9, 0xa7, 0x55, 0x3a, 0x59, 0xcd, 0xfd, 0x3d,
  0xa6, 0x98, 0x28, 0xbd, 0x7f, 0xa7, 0xc3, 0xbe, 0x52, 0xe6, 0xdd, 0xbe,
  0x3e, 0x23, 0x57, 0xbe, 0x68, 0xa8, 0x52, 0xbc, 0x9d, 0x70, 0xc4, 0xbb,
  0xe6, 0xef, 0xca, 0xbd, 0x96, 0xe5, 0x8f, 0xbe, 0xc8, 0x4c, 0x60, 0xbe,
  0x47, 0xe8, 0xa8, 0xbc, 0x03, 0x7b, 0x2b, 0xbd, 0x9b, 0xe1, 0xdf, 0x3d,
  0xd3, 0x57, 0x61, 0x3e, 0xfc, 0x8f, 0xb6, 0xbe, 0x53, 0x3e, 0xd7, 0xbe,
  0xc9, 0x5b, 0x78, 0xbd, 0xa4, 0x85, 0x60, 0xbe, 0xaa, 0x64, 0xa6, 0x3c,
  0x6e, 0x38, 0x11, 0x3f, 0x89, 0x05, 0x5d, 0x3e, 0x95, 0x53, 0x2c, 0xbe,
  0xb4, 0x9c, 0x3a, 0xbe, 0x41, 0xa6, 0x96, 0x3e, 0xa4, 0xf8, 0xc8, 0xbd,
  0x07, 0x5e, 0xba, 0xbb, 0xea, 0x5f, 0xce, 0xbe, 0x74, 0x00, 0xab, 0x3c,
  0x71, 0xe0, 0x53, 0xbd, 0x15, 0xc0, 0x99, 0xbe, 0x3e, 0xd0, 0xdc, 0x3d,
  0xc3, 0x1e, 0x10, 0xbe, 0xc3, 0x6d, 0xd5, 0x3c, 0xc2, 0xb1, 0x12, 0xbd,
  0x13, 0x7e, 0x99, 0x3d, 0x87, 0x9b, 0x29, 0xbb, 0x6a, 0x2c, 0xba, 0x3d,
  0x9c, 0x51, 0x2a, 0xbe, 0x84, 0xd7, 0x49, 0x3e, 0x25, 0x3d, 0xdb, 0x3d,
  0xc2, 0xc1, 0xc9, 0xbd, 0x4e, 0x37, 0xd5, 0xbd, 0x5f, 0x89, 0x09, 0xbe,
  0x62, 0x72, 0xfa, 0xbb, 0xb7, 0x78, 0x7d, 0xbd, 0x49, 0x22, 0x87, 0xbe,
  0xfd, 0xc2, 0xf8, 0xbd, 0x7b, 0x4d, 0xc6, 0xbb, 0x45, 0xb9, 0x62, 0xbe,
  0x3c, 0x68, 0x9b, 0x3d, 0xa9, 0x58, 0xa2, 0x3d, 0x07, 0x1c, 0xa8, 0xbe,
  0x03, 0xc3, 0xeb, 0x3d, 0x22, 0xba, 0xca, 0xbd, 0x65, 0xb7, 0x2a, 0x3e,
  0x44, 0xde, 0x39, 0x3e, 0xb6, 0x0e, 0x76, 0x3e, 0xa7, 0xa6, 0xa9, 0x3b,
  0x1f, 0x06, 0xec, 0xbd, 0x62, 0x92, 0xc2, 0x3e, 0x08, 0x68, 0x70, 0x3d,
  0x20, 0x29, 0xa4, 0xbd, 0x58, 0x4f, 0x60, 0xbe, 0xfc, 0x8c, 0xe1, 0x3c,
  0xfc, 0x1f, 0xbd, 0x3d, 0xac, 0x8b, 0x82, 0xbc, 0x84, 0x0b, 0xc8, 0xbd,
  0xc3, 0xff, 0x5d, 0xbe, 0x88, 0xaa, 0x53, 0x3e, 0xd7, 0x95, 0x69, 0xbe,
  0xac, 0xd8, 0x14, 0x3e, 0xf3, 0x5a, 0xb7, 0x3d, 0xa7, 0xb0, 0x0d, 0x3e,
  0xb5, 0x3d, 0x62, 0x3d, 0x0b, 0x95, 0x3c, 0xbe, 0x95, 0x00, 0xc1, 0x3e,
  0xf4, 0x30, 0xda, 0x3d, 0x03, 0xce, 0x43, 0xbc, 0xfe, 0x41, 0x86, 0xbe,
  0x23, 0x92, 0x0c, 0x3e, 0xf3, 0x86, 0xcf, 0xbe, 0xc0, 0x4d, 0xe1, 0xbb,
  0xa4, 0x4f, 0x74, 0xbd, 0x23, 0xe4, 0x78, 0xbc, 0x3c, 0x38, 0xb6, 0x3e,
  0xae, 0xf5, 0xd3, 0x3c, 0xcd, 0x65, 0x26, 0xbe, 0x23, 0x1c, 0x8a, 0x3e,
  0x0d, 0xe7, 0x41, 0x3e, 0x01, 0xef, 0x99, 0xbb, 0x7e, 0x2b, 0x32, 0xbe,
  0x74, 0x25, 0x85, 0x3e, 0x29, 0xf0, 0x4c, 0xbd, 0x05, 0xd4, 0x4d, 0x3e,
  0x72, 0x71, 0xc0, 0xbe, 0xc2, 0x5d, 0xef, 0x3d, 0x53, 0x2e, 0x07, 0xbf,
  0x2e, 0x4d, 0x5a, 0xbe, 0x6a, 0x7c, 0xbc, 0x3d, 0x52, 0x96, 0x2f, 0xbe,
  0xf2, 0x99, 0x7a, 0x3e, 0x5a, 0xa9, 0xe3, 0xbd, 0xbf, 0xe8, 0x7e, 0xbe,
  0x2f, 0xf3, 0x7e, 0x3e, 0xfa, 0x4c, 0xb4, 0xbd, 0x0f, 0x0b, 0x62, 0xbd,
  0x39, 0x07, 0x3c, 0xbe, 0x52, 0x30, 0x71, 0x3c, 0x6c, 0x19, 0x30, 0x3c,
  0xee, 0xf6, 0xb3, 0xbb, 0xcd, 0x17, 0x42, 0xbe, 0x68, 0x30, 0xa5, 0xbc,
  0xa4, 0x7c, 0xfd, 0x3c, 0x8a, 0x84, 0x5b, 0xbd, 0xc0, 0x31, 0x84, 0x3e,
  0x00, 0x8c, 0x96, 0x3d, 0x69, 0x50, 0xc4, 0x3d, 0x45, 0x7a, 0x28, 0xbb,
  0xda, 0x50, 0xe5, 0xbd, 0xa8, 0x9a, 0x1d, 0xbd, 0xa4, 0x3a, 0x1e, 0xbe,
  0x4f, 0xa0, 0xed, 0x3c, 0xe8, 0xd9, 0x94, 0x3c, 0xc3, 0x77, 0xd6, 0x3c,
  0x1c, 0xc3, 0x12, 0xbe, 0x23, 0x8b, 0x80, 0xbe, 0x7c, 0x1f, 0xa0, 0xbe,
  0x42, 0xa8, 0x54, 0xbd, 0x59, 0x82, 0x62, 0x3f, 0xbf, 0xa4, 0x12, 0x3f,
  0xe2, 0x90, 0x40, 0xbd, 0x73, 0x53, 0xdd, 0x3d, 0x3e, 0x05, 0x99, 0x3c,
  0x0e, 0xfe, 0x13, 0xbd, 0xeb, 0xfc, 0x5e, 0xbe, 0x0e, 0x90, 0x57, 0xbe,
  0x74, 0x24, 0x09, 0xbc, 0xf6, 0x29, 0xef, 0xbe, 0xc5, 0x18, 0xb2, 0xbd,
  0xb9, 0xa4, 0x2f, 0xbd, 0x12, 0x40, 0xa7, 0xbe, 0x64, 0xe6, 0x65, 0xbd,
  0x58, 0xae, 0xf2, 0xbc, 0xdf, 0xc8, 0x26, 0xbe, 0x6a, 0x8f, 0xa2, 0x3f,
  0xb3, 0xb8, 0x38, 0x3f, 0x23, 0xe9, 0xfb, 0x3d, 0xa8, 0xb7, 0x07, 0x3f,
  0x13, 0xd0, 0xd2, 0x3e, 0xf6, 0x80, 0xcb, 0xbb, 0x09, 0xe0, 0x0d, 0x3e,
  0x71, 0x84, 0xb4, 0xbd, 0x4f, 0x92, 0x36, 0x3d, 0x54, 0xec, 0xb0, 0xbe,
  0x5b, 0x57, 0x74, 0xbd, 0xe8, 0xf1, 0x4e, 0xbd, 0x1c, 0x92, 0xec, 0xbd,
  0x30, 0x9a, 0x27, 0xbe, 0x53, 0x46, 0xc6, 0xbd, 0x32, 0xe3, 0x1e, 0xbe,
  0xa2, 0xcd, 0x85, 0x3f, 0x0d, 0xbd, 0x32, 0x3f, 0x87, 0x51, 0xa8, 0x3d,
  0x8b, 0x7a, 0xf7, 0x3e, 0xb3, 0x73, 0xad, 0x3e, 0x7f, 0xe4, 0x66, 0xbd,
  0x86, 0x8d, 0x3e, 0xbe, 0xa5, 0xbd, 0x19, 0xbe, 0xc4, 0xb5, 0x14, 0x3e,
  0x92, 0xe3, 0xc3, 0xbe, 0x0c, 0xc9, 0xaf, 0xbd, 0xb4, 0x1f, 0x09, 0x3d,
  0x69, 0xe3, 0x27, 0x3d, 0xa2, 0xca, 0xe1, 0x3d, 0x1e, 0x02, 0xf8, 0xbd,
  0x25, 0xc1, 0x7a, 0xbd, 0x2f, 0x32, 0x87, 0x3e, 0x6c, 0x1a, 0x19, 0x3f,
  0x8f, 0xfa, 0x80, 0xbd, 0x46, 0xbd, 0x41, 0xbc, 0xda, 0x3b, 0xbd, 0x3e,
  0x44, 0xcd, 0x65, 0x3c, 0x4d, 0x2c, 0xb1, 0x3e, 0xec, 0x0c, 0x73, 0xbd,
  0x2e, 0x4e, 0x8a, 0x3d, 0x6e, 0xd4, 0xc4, 0xbe, 0xd5, 0xf9, 0x86, 0xbe,
  0x02, 0x9e, 0xf1, 0xbd, 0x9d, 0xa0, 0x24, 0x3e, 0x28, 0x4a, 0x9f, 0x3e,
  0x14, 0xb4, 0x8c, 0xbe, 0x21, 0x80, 0xa9, 0xbe, 0xc9, 0x8b, 0x39, 0x3f,
  0xcb, 0x52, 0x59, 0x3f, 0x8c, 0x4c, 0x1b, 0x3d, 0x66, 0x88, 0xa4, 0x3e,
  0x7e, 0x1a, 0x59, 0x3e, 0x83, 0x9d, 0x6e, 0xbe, 0xef, 0xa2, 0xaf, 0x3d,
  0x4d, 0x94, 0xa0, 0xbc, 0x30, 0x87, 0x84, 0x3e, 0x09, 0x57, 0x88, 0xbe,
  0xa8, 0x84, 0x9d, 0xbe, 0x9f, 0xa7, 0x91, 0x3e, 0x84, 0x54, 0xcd, 0xbc,
  0x66, 0xb9, 0x60, 0xbe, 0xc4, 0x1f, 0x01, 0xbe, 0x1d, 0x98, 0x92, 0xbe,
  0xd3, 0x5e, 0x2d, 0x3f, 0x23, 0xc4, 0x20, 0x3f, 0xf4, 0x3c, 0xa8, 0x3d,
  0xc2, 0x83, 0x10, 0x3f, 0x8c, 0x50, 0x30, 0x3d, 0xfd, 0x70, 0xec, 0x3d,
  0xb4, 0x69, 0xb9, 0xbd, 0x35, 0x80, 0x40, 0xbd, 0x43, 0xa1, 0xe2, 0xbd,
  0x9b, 0x51, 0x89, 0xbe, 0x32, 0xb4, 0x9e, 0xbe, 0xae, 0xc7, 0xbb, 0xbd,
  0x13, 0x2a, 0xec, 0xbe, 0xeb, 0xb3, 0x21, 0xbe, 0xf8, 0x5f, 0x69, 0xbe,
  0xbd, 0x48, 0x55, 0xbe, 0xbf, 0x25, 0xed, 0x3e, 0x28, 0x7e, 0x34, 0xbe,
  0xbe, 0x5d, 0x26, 0xbd, 0x5d, 0x8b, 0xcf, 0x3e, 0x91, 0x2c, 0x64, 0xbc,
  0x39, 0x44, 0x87, 0xbe, 0x53, 0x7e, 0x94, 0xbe, 0x2b, 0x10, 0x7c, 0xbe,
  0xf3, 0xfd, 0x1b, 0xbc, 0x38, 0x14, 0xbd, 0xbe, 0x93, 0xf6, 0x92, 0xbe,
  0xf3, 0x8b, 0xf0, 0xbd, 0x62, 0xfd, 0xff, 0xff, 0x10, 0x00, 0x00, 0x00,
  0x07, 0x00, 0x00, 0x00, 0x14, 0x00, 0x00, 0x00, 0x2c, 0x00, 0x00, 0x00,
  0x02, 0x00, 0x00, 0x00, 0x10, 0x00, 0x00, 0x00, 0x70, 0x00, 0x00, 0x00,
  0x17, 0x00, 0x00, 0x00, 0x73, 0x65, 0x71, 0x75, 0x65, 0x6e, 0x74, 0x69,
  0x61, 0x6c, 0x2f, 0x64, 0x65, 0x6e, 0x73, 0x65, 0x2f, 0x4d, 0x61, 0x74,
  0x4d, 0x75, 0x6c, 0x00, 0xcc, 0xfc, 0xff, 0xff, 0xd6, 0xfd, 0xff, 0xff,
  0x04, 0x00, 0x00, 0x00, 0x08, 0x00, 0x00, 0x00, 0xff, 0xff, 0xff, 0xff,
  0x70, 0x00, 0x00, 0x00, 0x00, 0x00, 0x0e, 0x00, 0x18, 0x00, 0x08, 0x00,
  0x07, 0x00, 0x0c, 0x00, 0x10, 0x00, 0x14, 0x00, 0x0e, 0x00, 0x00, 0x00,
  0x00, 0x00, 0x00, 0x02, 0x10, 0x00, 0x00, 0x00, 0x06, 0x00, 0x00, 0x00,
  0x10, 0x00, 0x00, 0x00, 0x2c, 0x00, 0x00, 0x00, 0x01, 0x00, 0x00, 0x00,
  0x02, 0x00, 0x00, 0x00, 0x18, 0x00, 0x00, 0x00, 0x73, 0x65, 0x71, 0x75,
  0x65, 0x6e, 0x74, 0x69, 0x61, 0x6c, 0x2f, 0x66, 0x6c, 0x61, 0x74, 0x74,
  0x65, 0x6e, 0x2f, 0x43, 0x6f, 0x6e, 0x73, 0x74, 0x00, 0x00, 0x00, 0x00,
  0x34, 0xfd, 0xff, 0xff, 0x3e, 0xfe, 0xff, 0xff, 0x04, 0x00, 0x00, 0x00,
  0x10, 0x00, 0x00, 0x00, 0x7c, 0x60, 0x2b, 0xbf, 0x87, 0x60, 0x92, 0xc0,
  0xb5, 0x1c, 0xce, 0xbf, 0xbd, 0x01, 0x54, 0x40, 0x26, 0xfe, 0xff, 0xff,
  0x10, 0x00, 0x00, 0x00, 0x05, 0x00, 0x00, 0x00, 0x10, 0x00, 0x00, 0x00,
  0x44, 0x00, 0x00, 0x00, 0x01, 0x00, 0x00, 0x00, 0x04, 0x00, 0x00, 0x00,
  0x32, 0x00, 0x00, 0x00, 0x73, 0x65, 0x71, 0x75, 0x65, 0x6e, 0x74, 0x69,
  0x61, 0x6c, 0x2f, 0x64, 0x65, 0x6e, 0x73, 0x65, 0x5f, 0x31, 0x2f, 0x42,
  0x69, 0x61, 0x73, 0x41, 0x64, 0x64, 0x2f, 0x52, 0x65, 0x61, 0x64, 0x56,
  0x61, 0x72, 0x69, 0x61, 0x62, 0x6c, 0x65, 0x4f, 0x70, 0x2f, 0x72, 0x65,
  0x73, 0x6f, 0x75, 0x72, 0x63, 0x65, 0x00, 0x00, 0xa8, 0xfd, 0xff, 0xff,
  0xb2, 0xfe, 0xff, 0xff, 0x04, 0x00, 0x00, 0x00, 0x40, 0x00, 0x00, 0x00,
  0xe3, 0xd5, 0x1a, 0xbe, 0xe6, 0x16, 0xe0, 0xbe, 0x3d, 0x8c, 0x8a, 0x3e,
  0x5e, 0x91, 0x99, 0x3e, 0x8d, 0x40, 0x48, 0x3f, 0xbc, 0xfe, 0xcf, 0xbe,
  0xcf, 0x97, 0xfa, 0xbe, 0xf7, 0xee, 0x06, 0xc0, 0x35, 0xb2, 0xd3, 0x3f,
  0x07, 0xc1, 0xfb, 0xbd, 0x12, 0x53, 0x9e, 0x3e, 0x1c, 0x4b, 0x94, 0x3e,
  0x60, 0x6b, 0xb8, 0x3f, 0x07, 0x6a, 0x8f, 0xbf, 0x1c, 0xa3, 0xac, 0xbf,
  0xee, 0xd4, 0x93, 0xbe, 0xca, 0xfe, 0xff, 0xff, 0x10, 0x00, 0x00, 0x00,
  0x04, 0x00, 0x00, 0x00, 0x10, 0x00, 0x00, 0x00, 0x44, 0x00, 0x00, 0x00,
  0x01, 0x00, 0x00, 0x00, 0x10, 0x00, 0x00, 0x00, 0x30, 0x00, 0x00, 0x00,
  0x73, 0x65, 0x71, 0x75, 0x65, 0x6e, 0x74, 0x69, 0x61, 0x6c, 0x2f, 0x64,
  0x65, 0x6e, 0x73, 0x65, 0x2f, 0x42, 0x69, 0x61, 0x73, 0x41, 0x64, 0x64,
  0x2f, 0x52, 0x65, 0x61, 0x64, 0x56, 0x61, 0x72, 0x69, 0x61, 0x62, 0x6c,
  0x65, 0x4f, 0x70, 0x2f, 0x72, 0x65, 0x73, 0x6f, 0x75, 0x72, 0x63, 0x65,
  0x00, 0x00, 0x00, 0x00, 0x4c, 0xfe, 0xff, 0xff, 0x56, 0xff, 0xff, 0xff,
  0x04, 0x00, 0x00, 0x00, 0x40, 0x00, 0x00, 0x00, 0x80, 0x0a, 0x86, 0xbf,
  0x54, 0xa1, 0x14, 0xc0, 0x06, 0x8c, 0x24, 0xbf, 0xff, 0xca, 0x9e, 0xbf,
  0x10, 0x16, 0xf7, 0x3f, 0xe9, 0xd3, 0x3f, 0x3f, 0x02, 0xf2, 0x8b, 0x3f,
  0x10, 0x27, 0x3d, 0x3f, 0x60, 0x8c, 0xb1, 0x3e, 0x8a, 0x12, 0x14, 0xbf,
  0xb4, 0x0c, 0x6b, 0xbf, 0x67, 0xdc, 0x56, 0xbf, 0xc1, 0x99, 0x8f, 0xbf,
  0xfa, 0xbe, 0xcb, 0xbf, 0xc3, 0x7c, 0xbc, 0xbe, 0xca, 0x34, 0x11, 0xc0,
  0x6e, 0xff, 0xff, 0xff, 0x10, 0x00, 0x00, 0x00, 0x03, 0x00, 0x00, 0x00,
  0x10, 0x00, 0x00, 0x00, 0x48, 0x00, 0x00, 0x00, 0x01, 0x00, 0x00, 0x00,
  0x10, 0x00, 0x00, 0x00, 0x33, 0x00, 0x00, 0x00, 0x73, 0x65, 0x71, 0x75,
  0x65, 0x6e, 0x74, 0x69, 0x61, 0x6c, 0x2f, 0x63, 0x6f, 0x6e, 0x76, 0x32,
  0x64, 0x5f, 0x31, 0x2f, 0x42, 0x69, 0x61, 0x73, 0x41, 0x64, 0x64, 0x2f,
  0x52, 0x65, 0x61, 0x64, 0x56, 0x61, 0x72, 0x69, 0x61, 0x62, 0x6c, 0x65,
  0x4f, 0x70, 0x2f, 0x72, 0x65, 0x73, 0x6f, 0x75, 0x72, 0x63, 0x65, 0x00,
  0x04, 0x00, 0x06, 0x00, 0x04, 0x00, 0x00, 0x00, 0x00, 0x00, 0x06, 0x00,
  0x08, 0x00, 0x04, 0x00, 0x06, 0x00, 0x00, 0x00, 0x04, 0x00, 0x00, 0x00,
  0x20, 0x00, 0x00, 0x00, 0x59, 0x41, 0xf9, 0xbf, 0x4e, 0xff, 0x94, 0xbf,
  0xfd, 0xd1, 0x15, 0xc0, 0x94, 0xe1, 0x25, 0xc0, 0xbb, 0x21, 0x28, 0xc0,
  0x80, 0x49, 0x44, 0xc0, 0x43, 0x07, 0xb6, 0xbe, 0xe9, 0x09, 0x9f, 0xbf,
  0x00, 0x00, 0x0e, 0x00, 0x14, 0x00, 0x04, 0x00, 0x00, 0x00, 0x08, 0x00,
  0x0c, 0x00, 0x10, 0x00, 0x0e, 0x00, 0x00, 0x00, 0x10, 0x00, 0x00, 0x00,
  0x02, 0x00, 0x00, 0x00, 0x10, 0x00, 0x00, 0x00, 0x44, 0x00, 0x00, 0x00,
  0x01, 0x00, 0x00, 0x00, 0x08, 0x00, 0x00, 0x00, 0x31, 0x00, 0x00, 0x00,
  0x73, 0x65, 0x71, 0x75, 0x65, 0x6e, 0x74, 0x69, 0x61, 0x6c, 0x2f, 0x63,
  0x6f, 0x6e, 0x76, 0x32, 0x64, 0x2f, 0x42, 0x69, 0x61, 0x73, 0x41, 0x64,
  0x64, 0x2f, 0x52, 0x65, 0x61, 0x64, 0x56, 0x61, 0x72, 0x69, 0x61, 0x62,
  0x6c, 0x65, 0x4f, 0x70, 0x2f, 0x72, 0x65, 0x73, 0x6f, 0x75, 0x72, 0x63,
  0x65, 0x00, 0x00, 0x00, 0x90, 0xff, 0xff, 0xff, 0x14, 0x00, 0x18, 0x00,
  0x04, 0x00, 0x00, 0x00, 0x08, 0x00, 0x0c, 0x00, 0x10, 0x00, 0x00, 0x00,
  0x00, 0x00, 0x14, 0x00, 0x14, 0x00, 0x00, 0x00, 0x14, 0x00, 0x00, 0x00,
  0x01, 0x00, 0x00, 0x00, 0x20, 0x00, 0x00, 0x00, 0x44, 0x00, 0x00, 0x00,
  0x2c, 0x00, 0x00, 0x00, 0x04, 0x00, 0x00, 0x00, 0x01, 0x00, 0x00, 0x00,
  0x40, 0x00, 0x00, 0x00, 0x03, 0x00, 0x00, 0x00, 0x01, 0x00, 0x00, 0x00,
  0x0c, 0x00, 0x00, 0x00, 0x63, 0x6f, 0x6e, 0x76, 0x32, 0x64, 0x5f, 0x69,
  0x6e, 0x70, 0x75, 0x74, 0x00, 0x00, 0x00, 0x00, 0x04, 0x00, 0x00, 0x00,
  0xff, 0xff, 0xff, 0xff, 0x40, 0x00, 0x00, 0x00, 0x03, 0x00, 0x00, 0x00,
  0x01, 0x00, 0x00, 0x00, 0xfc, 0xff, 0xff, 0xff, 0x04, 0x00, 0x04, 0x00,
  0x04, 0x00, 0x00, 0x00
};

unsigned int model_tflite_len = 13120;// Fill the int in `src/model.cc` here